{
  "version": "1.0",
  "truncation": null,
  "padding": null,
  "added_tokens": [
    {
      "id": 0,
      "content": "[PAD]",
      "single_word": false,
      "lstrip": false,
      "rstrip": false,
      "normalized": false,
      "special": true
    },
    {
      "id": 1,
      "content": "[UNK]",
      "single_word": false,
      "lstrip": false,
      "rstrip": false,
      "normalized": false,
      "special": true
    },
    {
      "id": 2,
      "content": "[CLS]",
      "single_word": false,
      "lstrip": false,
      "rstrip": false,
      "normalized": false,
      "special": true
    },
    {
      "id": 3,
      "content": "[SEP]",
      "single_word": false,
      "lstrip": false,
      "rstrip": false,
      "normalized": false,
      "special": true
    },
    {
      "id": 4,
      "content": "[MASK]",
      "single_word": false,
      "lstrip": false,
      "rstrip": false,
      "normalized": false,
      "special": true
    }
  ],
  "normalizer": null,
  "pre_tokenizer": {
    "type": "Whitespace"
  },
  "post_processor": null,
  "decoder": null,
  "model": {
    "type": "WordPiece",
    "unk_token": "[UNK]",
    "continuing_subword_prefix": "##",
    "max_input_chars_per_word": 100,
    "vocab": {
      "[PAD]": 0,
      "[UNK]": 1,
      "[CLS]": 2,
      "[SEP]": 3,
      "[MASK]": 4,
      "!": 5,
      "\"": 6,
      "#": 7,
      "$": 8,
      "%": 9,
      "&": 10,
      "'": 11,
      "(": 12,
      ")": 13,
      "*": 14,
      "+": 15,
      ",": 16,
      "-": 17,
      ".": 18,
      "/": 19,
      "0": 20,
      "1": 21,
      "2": 22,
      "3": 23,
      "4": 24,
      "5": 25,
      "6": 26,
      "7": 27,
      "8": 28,
      "9": 29,
      ":": 30,
      ";": 31,
      "<": 32,
      "=": 33,
      ">": 34,
      "?": 35,
      "@": 36,
      "A": 37,
      "B": 38,
      "C": 39,
      "D": 40,
      "E": 41,
      "F": 42,
      "G": 43,
      "H": 44,
      "I": 45,
      "J": 46,
      "K": 47,
      "L": 48,
      "M": 49,
      "N": 50,
      "O": 51,
      "P": 52,
      "Q": 53,
      "R": 54,
      "S": 55,
      "T": 56,
      "U": 57,
      "V": 58,
      "W": 59,
      "X": 60,
      "Y": 61,
      "Z": 62,
      "[": 63,
      "\\": 64,
      "]": 65,
      "^": 66,
      "_": 67,
      "`": 68,
      "a": 69,
      "b": 70,
      "c": 71,
      "d": 72,
      "e": 73,
      "f": 74,
      "g": 75,
      "h": 76,
      "i": 77,
      "j": 78,
      "k": 79,
      "l": 80,
      "m": 81,
      "n": 82,
      "o": 83,
      "p": 84,
      "q": 85,
      "r": 86,
      "s": 87,
      "t": 88,
      "u": 89,
      "v": 90,
      "w": 91,
      "x": 92,
      "y": 93,
      "z": 94,
      "{": 95,
      "|": 96,
      "}": 97,
      "~": 98,
      "": 99,
      "": 100,
      "": 101,
      "": 102,
      "": 103,
      "": 104,
      "": 105,
      "¡": 106,
      "¢": 107,
      "£": 108,
      "¤": 109,
      "¨": 110,
      "©": 111,
      "ª": 112,
      "«": 113,
      "­": 114,
      "°": 115,
      "´": 116,
      "·": 117,
      "º": 118,
      "»": 119,
      "½": 120,
      "¾": 121,
      "À": 122,
      "Â": 123,
      "Ä": 124,
      "Å": 125,
      "Æ": 126,
      "Ç": 127,
      "È": 128,
      "É": 129,
      "Ï": 130,
      "Ð": 131,
      "Ó": 132,
      "Õ": 133,
      "Ö": 134,
      "Ü": 135,
      "Þ": 136,
      "ß": 137,
      "à": 138,
      "á": 139,
      "â": 140,
      "ã": 141,
      "ä": 142,
      "å": 143,
      "æ": 144,
      "ç": 145,
      "è": 146,
      "é": 147,
      "ê": 148,
      "ë": 149,
      "ì": 150,
      "í": 151,
      "î": 152,
      "ï": 153,
      "ð": 154,
      "ñ": 155,
      "ò": 156,
      "ó": 157,
      "ô": 158,
      "õ": 159,
      "ö": 160,
      "ø": 161,
      "ú": 162,
      "û": 163,
      "ü": 164,
      "ý": 165,
      "ğ": 166,
      "ı": 167,
      "ō": 168,
      "Ż": 169,
      "א": 170,
      "ג": 171,
      "ו": 172,
      "י": 173,
      "כ": 174,
      "ל": 175,
      "מ": 176,
      "ן": 177,
      "ר": 178,
      "–": 179,
      "‘": 180,
      "’": 181,
      "“": 182,
      "”": 183,
      "…": 184,
      "″": 185,
      "▼": 186,
      "★": 187,
      "、": 188,
      "，": 189,
      "##a": 190,
      "##c": 191,
      "##k": 192,
      "##s": 193,
      "##d": 194,
      "##o": 195,
      "##n": 196,
      "##i": 197,
      "##e": 198,
      "##f": 199,
      "##t": 200,
      "##h": 201,
      "##l": 202,
      "##r": 203,
      "##u": 204,
      "##v": 205,
      "##y": 206,
      "##b": 207,
      "##>": 208,
      "##*": 209,
      "##.": 210,
      "##p": 211,
      "##g": 212,
      "##O": 213,
      "##Y": 214,
      "##L": 215,
      "##E": 216,
      "##m": 217,
      "##w": 218,
      "##x": 219,
      "##q": 220,
      "##S": 221,
      "##1": 222,
      "##M": 223,
      "##U": 224,
      "##F": 225,
      "##7": 226,
      "##A": 227,
      "##I": 228,
      "##H": 229,
      "##N": 230,
      "##R": 231,
      "##D": 232,
      "##6": 233,
      "##3": 234,
      "##B": 235,
      "##G": 236,
      "##T": 237,
      "##V": 238,
      "##C": 239,
      "##z": 240,
      "##8": 241,
      "##P": 242,
      "##X": 243,
      "##j": 244,
      "##&": 245,
      "##K": 246,
      "##?": 247,
      "##<": 248,
      "##2": 249,
      "##é": 250,
      "##0": 251,
      "##,": 252,
      "##5": 253,
      "##_": 254,
      "##9": 255,
      "##!": 256,
      "##'": 257,
      "##\"": 258,
      "##)": 259,
      "##:": 260,
      "##W": 261,
      "##-": 262,
      "##(": 263,
      "##ê": 264,
      "##$": 265,
      "##4": 266,
      "##Q": 267,
      "##í": 268,
      "##^": 269,
      "##@": 270,
      "##J": 271,
      "###": 272,
      "##=": 273,
      "##Z": 274,
      "##ó": 275,
      "##;": 276,
      "##\\": 277,
      "##ç": 278,
      "##ã": 279,
      "##/": 280,
      "##": 281,
      "##½": 282,
      "##[": 283,
      "##ú": 284,
      "##å": 285,
      "##ä": 286,
      "##}": 287,
      "##`": 288,
      "##ö": 289,
      "##ð": 290,
      "##": 291,
      "##ë": 292,
      "##à": 293,
      "##]": 294,
      "##á": 295,
      "##ü": 296,
      "##ø": 297,
      "##è": 298,
      "##ñ": 299,
      "##%": 300,
      "##ý": 301,
      "##ò": 302,
      "##û": 303,
      "##": 304,
      "##ô": 305,
      "##+": 306,
      "##{": 307,
      "##…": 308,
      "##î": 309,
      "##¡": 310,
      "##â": 311,
      "##ß": 312,
      "##”": 313,
      "##Å": 314,
      "##¤": 315,
      "##Õ": 316,
      "##–": 317,
      "##": 318,
      "##ï": 319,
      "##~": 320,
      "##«": 321,
      "##“": 322,
      "##|": 323,
      "##": 324,
      "##ğ": 325,
      "##Ó": 326,
      "##»": 327,
      "##ì": 328,
      "##·": 329,
      "##ı": 330,
      "##ō": 331,
      "##’": 332,
      "##º": 333,
      "##È": 334,
      "##★": 335,
      "##ג": 336,
      "##א": 337,
      "##ל": 338,
      "##▼": 339,
      "##æ": 340,
      "##É": 341,
      "##õ": 342,
      "##£": 343,
      "##ר": 344,
      "##מ": 345,
      "##ו": 346,
      "##ן": 347,
      "th": 348,
      "##er": 349,
      "the": 350,
      "##in": 351,
      "##nd": 352,
      "##at": 353,
      "##es": 354,
      "##or": 355,
      "##en": 356,
      "##ing": 357,
      "##ou": 358,
      "##is": 359,
      "##on": 360,
      "##ed": 361,
      "##ar": 362,
      "and": 363,
      "of": 364,
      "to": 365,
      "##ll": 366,
      "##an": 367,
      "##it": 368,
      "##as": 369,
      "in": 370,
      "##re": 371,
      "br": 372,
      "##om": 373,
      "is": 374,
      "##ic": 375,
      "/>": 376,
      "##le": 377,
      "##ot": 378,
      "##ut": 379,
      "##al": 380,
      "##ct": 381,
      "it": 382,
      "##il": 383,
      "be": 384,
      "##ie": 385,
      "wh": 386,
      "Th": 387,
      "##ly": 388,
      "##st": 389,
      "##ov": 390,
      "on": 391,
      "that": 392,
      "##ow": 393,
      "re": 394,
      "##ent": 395,
      "##ad": 396,
      "##ve": 397,
      "this": 398,
      "##ch": 399,
      "##et": 400,
      "##ion": 401,
      "##ay": 402,
      "st": 403,
      "##gh": 404,
      "##se": 405,
      "mov": 406,
      "was": 407,
      "##ith": 408,
      "/><": 409,
      "##ilm": 410,
      "##im": 411,
      "The": 412,
      "for": 413,
      "##id": 414,
      "film": 415,
      "as": 416,
      "##oo": 417,
      "##all": 418,
      "##ere": 419,
      "##ce": 420,
      "with": 421,
      "##ver": 422,
      "an": 423,
      "se": 424,
      "##am": 425,
      "##ld": 426,
      "##ir": 427,
      "movie": 428,
      "you": 429,
      "sh": 430,
      "##ke": 431,
      "##ter": 432,
      "##ur": 433,
      "ha": 434,
      "he": 435,
      ".<": 436,
      "li": 437,
      "but": 438,
      "##ill": 439,
      "##th": 440,
      "##ers": 441,
      "not": 442,
      "ch": 443,
      "##ally": 444,
      "##ck": 445,
      "##ess": 446,
      "are": 447,
      "##ri": 448,
      "##est": 449,
      "##ome": 450,
      "his": 451,
      "##ra": 452,
      "##pe": 453,
      "at": 454,
      "##em": 455,
      "##ould": 456,
      "have": 457,
      "##ul": 458,
      "##ust": 459,
      "su": 460,
      "##ro": 461,
      "##ght": 462,
      "fr": 463,
      "##un": 464,
      "##el": 465,
      "sc": 466,
      "act": 467,
      "do": 468,
      "##ore": 469,
      "##ain": 470,
      "one": 471,
      "who": 472,
      "ex": 473,
      "##ble": 474,
      "so": 475,
      "pl": 476,
      "com": 477,
      "##ood": 478,
      "##out": 479,
      "all": 480,
      "##act": 481,
      "ab": 482,
      "we": 483,
      "al": 484,
      "##ant": 485,
      "##pp": 486,
      "##ol": 487,
      "by": 488,
      "##us": 489,
      "##ak": 490,
      "##ag": 491,
      "##ies": 492,
      "de": 493,
      "##art": 494,
      "##ous": 495,
      "##op": 496,
      "like": 497,
      "wor": 498,
      "out": 499,
      "or": 500,
      "It": 501,
      "##her": 502,
      "they": 503,
      "from": 504,
      "##ist": 505,
      "ne": 506,
      "##ast": 507,
      "her": 508,
      "##one": 509,
      "some": 510,
      "con": 511,
      "##ost": 512,
      "##ation": 513,
      "##ven": 514,
      "##um": 515,
      "##au": 516,
      "##ight": 517,
      "##ough": 518,
      "en": 519,
      "##..": 520,
      "di": 521,
      "##ate": 522,
      "##ff": 523,
      "just": 524,
      "about": 525,
      "##ich": 526,
      "me": 527,
      "##and": 528,
      "##atch": 529,
      "has": 530,
      "##os": 531,
      "##ery": 532,
      "##ard": 533,
      "char": 534,
      "##ack": 535,
      "##ind": 536,
      "tim": 537,
      "can": 538,
      "##ort": 539,
      "##ory": 540,
      "##ive": 541,
      "##pt": 542,
      "un": 543,
      "up": 544,
      "##ud": 545,
      "##ook": 546,
      "le": 547,
      "This": 548,
      "##reat": 549,
      "##ake": 550,
      "charact": 551,
      "good": 552,
      "man": 553,
      "pro": 554,
      "ever": 555,
      "any": 556,
      "##ong": 557,
      "tr": 558,
      "get": 559,
      "watch": 560,
      "int": 561,
      "see": 562,
      "more": 563,
      "##ig": 564,
      "##ound": 565,
      "what": 566,
      "there": 567,
      "##od": 568,
      "would": 569,
      "very": 570,
      "fe": 571,
      "my": 572,
      "##ity": 573,
      "##ame": 574,
      "##fe": 575,
      "##ite": 576,
      "time": 577,
      "##ge": 578,
      "##able": 579,
      "no": 580,
      "bec": 581,
      "story": 582,
      "go": 583,
      "when": 584,
      "if": 585,
      "...": 586,
      "pr": 587,
      "scen": 588,
      "##oy": 589,
      "##ci": 590,
      "##ell": 591,
      "show": 592,
      "which": 593,
      "their": 594,
      "really": 595,
      "##hing": 596,
      "even": 597,
      "##ue": 598,
      "had": 599,
      "only": 600,
      "Wh": 601,
      "##ther": 602,
      "she": 603,
      "##ab": 604,
      "##ure": 605,
      "cl": 606,
      "him": 607,
      "kn": 608,
      "##ink": 609,
      "##ick": 610,
      "per": 611,
      "##og": 612,
      "##itt": 613,
      "were": 614,
      "##ap": 615,
      "them": 616,
      "did": 617,
      "##ious": 618,
      "##ine": 619,
      "##our": 620,
      "ar": 621,
      "##ond": 622,
      "than": 623,
      "##ence": 624,
      "##ful": 625,
      "end": 626,
      "##uch": 627,
      "##ays": 628,
      "##man": 629,
      "does": 630,
      "##so": 631,
      "##ars": 632,
      "##ade": 633,
      "look": 634,
      "great": 635,
      "pe": 636,
      "##rect": 637,
      "##ish": 638,
      "##ect": 639,
      "##pl": 640,
      "##ause": 641,
      "bad": 642,
      "lov": 643,
      "##ment": 644,
      "much": 645,
      "how": 646,
      "other": 647,
      "im": 648,
      "bet": 649,
      "##av": 650,
      "could": 651,
      "been": 652,
      "##te": 653,
      "well": 654,
      "qu": 655,
      "will": 656,
      "know": 657,
      "##ice": 658,
      "##ople": 659,
      "##ple": 660,
      "over": 661,
      "##ide": 662,
      "##irst": 663,
      "most": 664,
      "##ass": 665,
      "into": 666,
      "pre": 667,
      "##ose": 668,
      "##lf": 669,
      "##iv": 670,
      "thr": 671,
      "off": 672,
      "##ry": 673,
      "people": 674,
      "tw": 675,
      "think": 676,
      "##per": 677,
      "dis": 678,
      "too": 679,
      "every": 680,
      "us": 681,
      "ad": 682,
      "real": 683,
      "because": 684,
      "##int": 685,
      "direct": 686,
      "am": 687,
      "Ch": 688,
      "ag": 689,
      "##ob": 690,
      "In": 691,
      "##age": 692,
      "make": 693,
      "part": 694,
      "##for": 695,
      "##fter": 696,
      "##oll": 697,
      "thing": 698,
      "##other": 699,
      "po": 700,
      "fun": 701,
      "##ors": 702,
      "##ac": 703,
      "wr": 704,
      "made": 705,
      "##ny": 706,
      "first": 707,
      "gu": 708,
      "##ty": 709,
      "And": 710,
      "##ull": 711,
      "##ach": 712,
      "##aw": 713,
      "##ile": 714,
      "also": 715,
      "##ian": 716,
      "way": 717,
      "movies": 718,
      "mak": 719,
      "sp": 720,
      "don": 721,
      "##ace": 722,
      "##qu": 723,
      "##are": 724,
      "##ict": 725,
      "bl": 726,
      "##ne": 727,
      "##pr": 728,
      "te": 729,
      "seem": 730,
      "character": 731,
      "characters": 732,
      "its": 733,
      "But": 734,
      "##own": 735,
      "##ep": 736,
      "inter": 737,
      "play": 738,
      "##ary": 739,
      "##iew": 740,
      "work": 741,
      "##ical": 742,
      "cr": 743,
      "##ated": 744,
      "fl": 745,
      "##gin": 746,
      "##ually": 747,
      "##tain": 748,
      "films": 749,
      "plot": 750,
      "##cc": 751,
      "seen": 752,
      "your": 753,
      "Sh": 754,
      "##pect": 755,
      "He": 756,
      "ye": 757,
      "then": 758,
      "##iz": 759,
      "##self": 760,
      "##nder": 761,
      "want": 762,
      "##ip": 763,
      "##ens": 764,
      "being": 765,
      "ser": 766,
      "##ang": 767,
      "love": 768,
      "##ph": 769,
      "aw": 770,
      "##omet": 771,
      "many": 772,
      "##ng": 773,
      "##ces": 774,
      "say": 775,
      "##ber": 776,
      "after": 777,
      "acting": 778,
      "never": 779,
      "two": 780,
      ").": 781,
      "##ath": 782,
      "where": 783,
      "##get": 784,
      "There": 785,
      "##ance": 786,
      "hor": 787,
      "##ittle": 788,
      "life": 789,
      "##mer": 790,
      "##urn": 791,
      "somet": 792,
      "ro": 793,
      "##ark": 794,
      "##ans": 795,
      "back": 796,
      "through": 797,
      "St": 798,
      "##ents": 799,
      "best": 800,
      "rec": 801,
      "rem": 802,
      "19": 803,
      "##oc": 804,
      "little": 805,
      "better": 806,
      "des": 807,
      "ve": 808,
      "If": 809,
      "scene": 810,
      "##ult": 811,
      "gr": 812,
      "##augh": 813,
      "##du": 814,
      "),": 815,
      "##ild": 816,
      "##wn": 817,
      "spe": 818,
      "##ions": 819,
      "##ather": 820,
      "##ual": 821,
      "dr": 822,
      "##ise": 823,
      "##thing": 824,
      "##ought": 825,
      "##oth": 826,
      "under": 827,
      "find": 828,
      "min": 829,
      "##ily": 830,
      "##ever": 831,
      "##ire": 832,
      "scenes": 833,
      "##igh": 834,
      "Al": 835,
      "##iend": 836,
      "perfor": 837,
      "sl": 838,
      "##ves": 839,
      "should": 840,
      "##ase": 841,
      "##we": 842,
      "##ock": 843,
      "##lie": 844,
      "feel": 845,
      "##ting": 846,
      "10": 847,
      "##ater": 848,
      "##ree": 849,
      "att": 850,
      "inc": 851,
      "res": 852,
      "again": 853,
      "something": 854,
      "##ave": 855,
      "##if": 856,
      "eff": 857,
      "##me": 858,
      "##ense": 859,
      "kill": 860,
      "str": 861,
      "##oun": 862,
      "still": 863,
      "may": 864,
      "hum": 865,
      "lot": 866,
      "here": 867,
      "##ail": 868,
      "such": 869,
      "old": 870,
      "##ating": 871,
      "interest": 872,
      "sur": 873,
      "these": 874,
      "##ning": 875,
      "##ably": 876,
      "##ations": 877,
      "##fore": 878,
      "happ": 879,
      "##ia": 880,
      "##ving": 881,
      "##arly": 882,
      "guy": 883,
      "##ror": 884,
      "--": 885,
      "mus": 886,
      "tra": 887,
      "##alk": 888,
      "##ason": 889,
      "##less": 890,
      "cont": 891,
      "scre": 892,
      "Fr": 893,
      "those": 894,
      "actors": 895,
      "didn": 896,
      "funny": 897,
      "##be": 898,
      "watching": 899,
      "performan": 900,
      "doesn": 901,
      "As": 902,
      "cast": 903,
      "point": 904,
      "sim": 905,
      "gen": 906,
      "ap": 907,
      "dec": 908,
      "id": 909,
      "##ying": 910,
      "down": 911,
      "##joy": 912,
      "gir": 913,
      "##ool": 914,
      "comed": 915,
      "years": 916,
      "wom": 917,
      "##vel": 918,
      "belie": 919,
      "##erson": 920,
      "view": 921,
      "##ute": 922,
      "em": 923,
      "going": 924,
      "es": 925,
      "makes": 926,
      "sub": 927,
      "fam": 928,
      "set": 929,
      "produ": 930,
      "enjoy": 931,
      "fact": 932,
      "start": 933,
      "tak": 934,
      "##az": 935,
      "actually": 936,
      "same": 937,
      "ob": 938,
      "director": 939,
      "before": 940,
      "##iss": 941,
      "long": 942,
      "laugh": 943,
      "Br": 944,
      "##les": 945,
      "##ial": 946,
      "##oss": 947,
      "fin": 948,
      "comp": 949,
      "Jo": 950,
      "few": 951,
      "big": 952,
      "now": 953,
      "ter": 954,
      "##ience": 955,
      "##ead": 956,
      "thought": 957,
      "##ash": 958,
      "why": 959,
      "ke": 960,
      "exce": 961,
      "##ew": 962,
      "ev": 963,
      "while": 964,
      "pret": 965,
      "##ft": 966,
      "though": 967,
      "##cial": 968,
      "stu": 969,
      "friend": 970,
      "young": 971,
      "You": 972,
      "sm": 973,
      "own": 974,
      "##ale": 975,
      "turn": 976,
      "tri": 977,
      "bit": 978,
      "diff": 979,
      "rel": 980,
      "##ub": 981,
      "got": 982,
      "another": 983,
      "che": 984,
      "high": 985,
      "##ug": 986,
      "nothing": 987,
      "comple": 988,
      "##ings": 989,
      "screen": 990,
      "##ript": 991,
      "ori": 992,
      "effect": 993,
      "##ons": 994,
      "##arr": 995,
      "##ction": 996,
      "An": 997,
      "inv": 998,
      "##ible": 999,
      "##aut": 1000,
      "supp": 1001,
      "new": 1002,
      "around": 1003,
      "##ib": 1004,
      "##onder": 1005,
      "origin": 1006,
      "things": 1007,
      "How": 1008,
      "##iting": 1009,
      "girl": 1010,
      "pretty": 1011,
      "far": 1012,
      "Amer": 1013,
      "music": 1014,
      "##ord": 1015,
      "##old": 1016,
      "Americ": 1017,
      "quite": 1018,
      "app": 1019,
      "seems": 1020,
      "enough": 1021,
      "##air": 1022,
      "right": 1023,
      "acc": 1024,
      "horror": 1025,
      "hard": 1026,
      "need": 1027,
      "kid": 1028,
      "person": 1029,
      "##ince": 1030,
      "ins": 1031,
      "##ention": 1032,
      "##ically": 1033,
      "They": 1034,
      "##ways": 1035,
      "op": 1036,
      "script": 1037,
      "take": 1038,
      "What": 1039,
      "##ness": 1040,
      "must": 1041,
      "##ween": 1042,
      "##ced": 1043,
      "world": 1044,
      "wonder": 1045,
      "kind": 1046,
      "##ved": 1047,
      "##ank": 1048,
      "give": 1049,
      "comedy": 1050,
      "sound": 1051,
      "##most": 1052,
      "##utes": 1053,
      "between": 1054,
      "##ately": 1055,
      "##der": 1056,
      "##inem": 1057,
      "##app": 1058,
      "main": 1059,
      "enter": 1060,
      "put": 1061,
      "action": 1062,
      "appe": 1063,
      "original": 1064,
      "both": 1065,
      "role": 1066,
      "saw": 1067,
      "sex": 1068,
      "class": 1069,
      "isn": 1070,
      "##aid": 1071,
      "series": 1072,
      "reason": 1073,
      "##oot": 1074,
      "##vious": 1075,
      "sec": 1076,
      "##ward": 1077,
      "lead": 1078,
      "##!!": 1079,
      "whole": 1080,
      "done": 1081,
      "##ased": 1082,
      "tell": 1083,
      "worth": 1084,
      "times": 1085,
      "interesting": 1086,
      "always": 1087,
      "cam": 1088,
      "mom": 1089,
      "hel": 1090,
      "She": 1091,
      "gets": 1092,
      "##ount": 1093,
      "cons": 1094,
      "bor": 1095,
      "So": 1096,
      "##its": 1097,
      "come": 1098,
      "least": 1099,
      "##ope": 1100,
      "car": 1101,
      "hand": 1102,
      "shot": 1103,
      "almost": 1104,
      "\",": 1105,
      "##over": 1106,
      "##rible": 1107,
      "##icul": 1108,
      "read": 1109,
      "beaut": 1110,
      "without": 1111,
      "##ner": 1112,
      "Se": 1113,
      "war": 1114,
      "##ody": 1115,
      "call": 1116,
      "\".": 1117,
      "expect": 1118,
      "ide": 1119,
      "child": 1120,
      "cinem": 1121,
      "minutes": 1122,
      "cra": 1123,
      "complete": 1124,
      "ll": 1125,
      "might": 1126,
      "differ": 1127,
      "##view": 1128,
      "##hn": 1129,
      "TV": 1130,
      "##press": 1131,
      "expl": 1132,
      "ep": 1133,
      "ind": 1134,
      "##raph": 1135,
      "bu": 1136,
      "cle": 1137,
      "aud": 1138,
      "##bably": 1139,
      "##uring": 1140,
      "##ully": 1141,
      "##xt": 1142,
      "##ently": 1143,
      "##red": 1144,
      "##ress": 1145,
      "ph": 1146,
      "##ane": 1147,
      "anything": 1148,
      "making": 1149,
      "Be": 1150,
      "last": 1151,
      "##alog": 1152,
      "De": 1153,
      "For": 1154,
      "book": 1155,
      "##ines": 1156,
      "##stand": 1157,
      "imp": 1158,
      "##aster": 1159,
      "inst": 1160,
      "care": 1161,
      "##**": 1162,
      "##ert": 1163,
      "begin": 1164,
      "help": 1165,
      "##li": 1166,
      "DV": 1167,
      "ext": 1168,
      "##wh": 1169,
      "##cially": 1170,
      "found": 1171,
      "performance": 1172,
      "entertain": 1173,
      "cour": 1174,
      "el": 1175,
      "run": 1176,
      "let": 1177,
      "##son": 1178,
      "DVD": 1179,
      "Not": 1180,
      "##mend": 1181,
      "dialog": 1182,
      "away": 1183,
      "##ism": 1184,
      "##ER": 1185,
      "probably": 1186,
      "We": 1187,
      "art": 1188,
      "##ject": 1189,
      "That": 1190,
      "John": 1191,
      "sequ": 1192,
      "played": 1193,
      "##istic": 1194,
      "add": 1195,
      "##atter": 1196,
      "##ouse": 1197,
      "ent": 1198,
      "##ures": 1199,
      "##ives": 1200,
      "##ange": 1201,
      "##ah": 1202,
      "##oney": 1203,
      ".\"": 1204,
      "since": 1205,
      "##ife": 1206,
      "##ok": 1207,
      "##ative": 1208,
      "mind": 1209,
      "##ition": 1210,
      "sure": 1211,
      "family": 1212,
      "anyone": 1213,
      "##ling": 1214,
      "##ign": 1215,
      "mean": 1216,
      "looking": 1217,
      "##ros": 1218,
      "sch": 1219,
      "##alf": 1220,
      "poor": 1221,
      "##apt": 1222,
      "##though": 1223,
      "All": 1224,
      "##pecially": 1225,
      "woman": 1226,
      "boy": 1227,
      "##ten": 1228,
      "cre": 1229,
      "worst": 1230,
      "our": 1231,
      "keep": 1232,
      "bud": 1233,
      "abs": 1234,
      "##fect": 1235,
      "When": 1236,
      "##als": 1237,
      "rather": 1238,
      "each": 1239,
      "ty": 1240,
      "##led": 1241,
      "##ertain": 1242,
      "believe": 1243,
      "##uck": 1244,
      "mon": 1245,
      "##io": 1246,
      "lik": 1247,
      "##wood": 1248,
      "trying": 1249,
      "##ime": 1250,
      "##ingly": 1251,
      "happen": 1252,
      "##ommend": 1253,
      "##ollow": 1254,
      "par": 1255,
      "##ember": 1256,
      "Re": 1257,
      "##illi": 1258,
      "##iver": 1259,
      "ending": 1260,
      "##isod": 1261,
      "course": 1262,
      "##ates": 1263,
      "##00": 1264,
      "shows": 1265,
      "short": 1266,
      "##osed": 1267,
      "surpr": 1268,
      "American": 1269,
      "del": 1270,
      "One": 1271,
      "##oint": 1272,
      "##ster": 1273,
      "##ither": 1274,
      "yet": 1275,
      "creat": 1276,
      "vers": 1277,
      "My": 1278,
      "episod": 1279,
      "##ograph": 1280,
      "##olly": 1281,
      "##hip": 1282,
      "sense": 1283,
      "place": 1284,
      "prov": 1285,
      "Bl": 1286,
      "##iece": 1287,
      "##blem": 1288,
      "effects": 1289,
      "job": 1290,
      "##ues": 1291,
      "pol": 1292,
      "TH": 1293,
      "##itch": 1294,
      "Un": 1295,
      "Rob": 1296,
      "conf": 1297,
      "different": 1298,
      "def": 1299,
      "ac": 1300,
      "##pid": 1301,
      "##ilar": 1302,
      "fan": 1303,
      "especially": 1304,
      "half": 1305,
      "recommend": 1306,
      "dram": 1307,
      "##iter": 1308,
      "head": 1309,
      "comes": 1310,
      "day": 1311,
      "goes": 1312,
      "watched": 1313,
      "pres": 1314,
      "problem": 1315,
      "##ks": 1316,
      "less": 1317,
      "##ics": 1318,
      "##ret": 1319,
      "sit": 1320,
      "certain": 1321,
      "##empt": 1322,
      "##ray": 1323,
      "stand": 1324,
      "rest": 1325,
      "cou": 1326,
      "miss": 1327,
      "##ences": 1328,
      "exper": 1329,
      "actor": 1330,
      "gl": 1331,
      "##iful": 1332,
      "port": 1333,
      "##aps": 1334,
      "wasn": 1335,
      "##dd": 1336,
      "##umb": 1337,
      "##ont": 1338,
      "understand": 1339,
      "follow": 1340,
      "##ady": 1341,
      "##ower": 1342,
      "toget": 1343,
      "perfect": 1344,
      "##ney": 1345,
      "together": 1346,
      "##ann": 1347,
      "rele": 1348,
      "##era": 1349,
      "##ality": 1350,
      "##lud": 1351,
      "ey": 1352,
      "super": 1353,
      "##gr": 1354,
      "money": 1355,
      "three": 1356,
      "talk": 1357,
      "budget": 1358,
      "##ru": 1359,
      "plays": 1360,
      "audience": 1361,
      "someone": 1362,
      "special": 1363,
      "else": 1364,
      "disc": 1365,
      "##ortun": 1366,
      "fav": 1367,
      "gi": 1368,
      "said": 1369,
      "night": 1370,
      "##arn": 1371,
      "friends": 1372,
      "imag": 1373,
      "Le": 1374,
      "looks": 1375,
      "##ross": 1376,
      "##ments": 1377,
      "ass": 1378,
      "left": 1379,
      "##way": 1380,
      "bo": 1381,
      "having": 1382,
      "poss": 1383,
      "review": 1384,
      "everything": 1385,
      "hour": 1386,
      "second": 1387,
      "top": 1388,
      "##ider": 1389,
      "year": 1390,
      "takes": 1391,
      "##llent": 1392,
      "comm": 1393,
      "At": 1394,
      "true": 1395,
      "idea": 1396,
      "tot": 1397,
      "##amp": 1398,
      "On": 1399,
      "nice": 1400,
      "##ix": 1401,
      "sk": 1402,
      "ref": 1403,
      "##land": 1404,
      "##ins": 1405,
      "use": 1406,
      "himself": 1407,
      "Ar": 1408,
      "stupid": 1409,
      "invol": 1410,
      "Chr": 1411,
      "##ists": 1412,
      "vis": 1413,
      "##ited": 1414,
      "obvious": 1415,
      "##ional": 1416,
      "##ames": 1417,
      "sty": 1418,
      "used": 1419,
      "##ton": 1420,
      "##atic": 1421,
      "Mar": 1422,
      "during": 1423,
      "fall": 1424,
      "cop": 1425,
      "##ollywood": 1426,
      "came": 1427,
      "##ply": 1428,
      "everyone": 1429,
      "det": 1430,
      "##ove": 1431,
      "seeing": 1432,
      "mem": 1433,
      "entire": 1434,
      "##day": 1435,
      "version": 1436,
      "men": 1437,
      "tal": 1438,
      "mur": 1439,
      "wife": 1440,
      "##ern": 1441,
      "##sy": 1442,
      "##ature": 1443,
      "##ren": 1444,
      "dist": 1445,
      "beautiful": 1446,
      "open": 1447,
      "##ted": 1448,
      "Sc": 1449,
      "##ier": 1450,
      "lack": 1451,
      "excellent": 1452,
      "##cing": 1453,
      "##ides": 1454,
      "ed": 1455,
      "completely": 1456,
      "serious": 1457,
      "once": 1458,
      "includ": 1459,
      "home": 1460,
      "sing": 1461,
      "##reak": 1462,
      "school": 1463,
      "##ired": 1464,
      "death": 1465,
      "later": 1466,
      "along": 1467,
      "human": 1468,
      "word": 1469,
      "low": 1470,
      "sus": 1471,
      "attempt": 1472,
      "##fully": 1473,
      "Ste": 1474,
      "Don": 1475,
      "Sp": 1476,
      "##cept": 1477,
      "However": 1478,
      "No": 1479,
      "loc": 1480,
      "##appoint": 1481,
      "hist": 1482,
      "vide": 1483,
      "Cl": 1484,
      "fight": 1485,
      "##olute": 1486,
      "unt": 1487,
      "co": 1488,
      "##att": 1489,
      "##0s": 1490,
      "ele": 1491,
      "stud": 1492,
      "heart": 1493,
      "##gg": 1494,
      "disappoint": 1495,
      "sy": 1496,
      "##ets": 1497,
      "emot": 1498,
      "exc": 1499,
      "gra": 1500,
      "tit": 1501,
      "##ys": 1502,
      "##uth": 1503,
      "gener": 1504,
      "line": 1505,
      "remember": 1506,
      "hero": 1507,
      "##iol": 1508,
      "simply": 1509,
      "##ised": 1510,
      "##ied": 1511,
      "##ird": 1512,
      "wrong": 1513,
      "defin": 1514,
      "##aring": 1515,
      "beh": 1516,
      "##ax": 1517,
      "ret": 1518,
      "camera": 1519,
      "##ared": 1520,
      "dep": 1521,
      "##ography": 1522,
      "Man": 1523,
      "Hollywood": 1524,
      "Well": 1525,
      "##ese": 1526,
      "black": 1527,
      "song": 1528,
      "mar": 1529,
      "production": 1530,
      "##oon": 1531,
      "##ented": 1532,
      "boring": 1533,
      "pass": 1534,
      "##my": 1535,
      "couple": 1536,
      "name": 1537,
      "absolute": 1538,
      "kids": 1539,
      "Car": 1540,
      "humor": 1541,
      "##ote": 1542,
      "either": 1543,
      "hope": 1544,
      "##ott": 1545,
      "mess": 1546,
      "try": 1547,
      "##uly": 1548,
      "##enn": 1549,
      "##idd": 1550,
      "pict": 1551,
      "flick": 1552,
      "Mr": 1553,
      "cor": 1554,
      "##ract": 1555,
      "##ape": 1556,
      "full": 1557,
      "dra": 1558,
      "count": 1559,
      "small": 1560,
      "itself": 1561,
      "sort": 1562,
      "supposed": 1563,
      "classic": 1564,
      "To": 1565,
      "performances": 1566,
      "fail": 1567,
      "particul": 1568,
      "##tern": 1569,
      "conc": 1570,
      "ple": 1571,
      "cred": 1572,
      "except": 1573,
      "until": 1574,
      "getting": 1575,
      "##itten": 1576,
      "father": 1577,
      "awful": 1578,
      "##lish": 1579,
      "women": 1580,
      "favor": 1581,
      "##vin": 1582,
      "eas": 1583,
      "sad": 1584,
      "exam": 1585,
      "Jack": 1586,
      "##ps": 1587,
      "bas": 1588,
      "##med": 1589,
      "star": 1590,
      "rom": 1591,
      "THE": 1592,
      "viol": 1593,
      "After": 1594,
      "truly": 1595,
      "portray": 1596,
      "##oice": 1597,
      "given": 1598,
      "video": 1599,
      "##haps": 1600,
      "##itely": 1601,
      "dri": 1602,
      "won": 1603,
      "cut": 1604,
      "Some": 1605,
      "moments": 1606,
      "murder": 1607,
      "##IN": 1608,
      "##omb": 1609,
      "coll": 1610,
      "##sel": 1611,
      "becom": 1612,
      "next": 1613,
      "##ison": 1614,
      "##thers": 1615,
      "mother": 1616,
      "face": 1617,
      "light": 1618,
      "style": 1619,
      "Mich": 1620,
      "##orm": 1621,
      "##ities": 1622,
      "terrible": 1623,
      "##ows": 1624,
      "instead": 1625,
      "anim": 1626,
      "house": 1627,
      "##elt": 1628,
      "amaz": 1629,
      "guess": 1630,
      "maybe": 1631,
      "##rib": 1632,
      "reg": 1633,
      "consider": 1634,
      "mod": 1635,
      "##ize": 1636,
      "##atur": 1637,
      "however": 1638,
      "power": 1639,
      "unf": 1640,
      "dre": 1641,
      "..": 1642,
      "pain": 1643,
      "##iness": 1644,
      "playing": 1645,
      "went": 1646,
      "dead": 1647,
      "##ility": 1648,
      "Christ": 1649,
      "matter": 1650,
      "##ident": 1651,
      "lines": 1652,
      "##reme": 1653,
      "##illy": 1654,
      "##ister": 1655,
      "##oles": 1656,
      "couldn": 1657,
      "adv": 1658,
      "dialogue": 1659,
      "although": 1660,
      "guys": 1661,
      "doing": 1662,
      "##ric": 1663,
      "##ger": 1664,
      "##velop": 1665,
      "##aj": 1666,
      "##cum": 1667,
      "##que": 1668,
      "##ike": 1669,
      "##yn": 1670,
      "piece": 1671,
      "often": 1672,
      "gives": 1673,
      "others": 1674,
      "##cess": 1675,
      "early": 1676,
      "wonderful": 1677,
      "##unch": 1678,
      "entertaining": 1679,
      "called": 1680,
      "episode": 1681,
      "Even": 1682,
      "##uss": 1683,
      "With": 1684,
      "slow": 1685,
      "written": 1686,
      "Ever": 1687,
      "##oid": 1688,
      "Is": 1689,
      ",\"": 1690,
      "##aughter": 1691,
      "wa": 1692,
      "##illiant": 1693,
      "##imes": 1694,
      "impress": 1695,
      "Dav": 1696,
      "##eng": 1697,
      "mention": 1698,
      "##body": 1699,
      "trans": 1700,
      "form": 1701,
      "##sc": 1702,
      "##ork": 1703,
      "ann": 1704,
      "case": 1705,
      "Me": 1706,
      "Char": 1707,
      "liked": 1708,
      "quest": 1709,
      "children": 1710,
      "live": 1711,
      "!!!": 1712,
      "##eth": 1713,
      "absolutely": 1714,
      "dark": 1715,
      "##ined": 1716,
      "sever": 1717,
      "worse": 1718,
      "##ony": 1719,
      "relations": 1720,
      "become": 1721,
      "develop": 1722,
      "title": 1723,
      "game": 1724,
      "sn": 1725,
      "loved": 1726,
      "##ibly": 1727,
      "rid": 1728,
      "##ories": 1729,
      "##olog": 1730,
      "actress": 1731,
      "certainly": 1732,
      "drama": 1733,
      "side": 1734,
      "master": 1735,
      "His": 1736,
      "##ized": 1737,
      "stars": 1738,
      "grou": 1739,
      "strong": 1740,
      "##ortunately": 1741,
      "totally": 1742,
      "extreme": 1743,
      "##els": 1744,
      "beginning": 1745,
      "Now": 1746,
      "deal": 1747,
      "##oub": 1748,
      "##ush": 1749,
      "Robert": 1750,
      "##ouch": 1751,
      "##arb": 1752,
      "able": 1753,
      "##orn": 1754,
      "definitely": 1755,
      "brilliant": 1756,
      "##ley": 1757,
      "pop": 1758,
      "##cy": 1759,
      "##oke": 1760,
      "Ed": 1761,
      "teen": 1762,
      "##pite": 1763,
      "##ench": 1764,
      "##pped": 1765,
      "several": 1766,
      "blood": 1767,
      "felt": 1768,
      "cinema": 1769,
      "wanted": 1770,
      "dem": 1771,
      "succ": 1772,
      "mis": 1773,
      "seemed": 1774,
      "et": 1775,
      "##used": 1776,
      "hu": 1777,
      "##ular": 1778,
      "##ision": 1779,
      "##iller": 1780,
      "Eng": 1781,
      "##selves": 1782,
      "sw": 1783,
      "##ien": 1784,
      "relationship": 1785,
      "Then": 1786,
      "New": 1787,
      "stuff": 1788,
      "Why": 1789,
      "pur": 1790,
      "##ael": 1791,
      "##ement": 1792,
      "pred": 1793,
      "picture": 1794,
      "cent": 1795,
      "close": 1796,
      "based": 1797,
      "waste": 1798,
      "susp": 1799,
      "##ene": 1800,
      "quality": 1801,
      "red": 1802,
      "Of": 1803,
      "##line": 1804,
      "Also": 1805,
      "av": 1806,
      "##ready": 1807,
      "capt": 1808,
      "past": 1809,
      "##unk": 1810,
      "##ming": 1811,
      "##ains": 1812,
      "against": 1813,
      "already": 1814,
      "example": 1815,
      "adm": 1816,
      "Just": 1817,
      "##riend": 1818,
      "deser": 1819,
      "success": 1820,
      "Ger": 1821,
      "direction": 1822,
      "##ief": 1823,
      "ear": 1824,
      "##sych": 1825,
      "becomes": 1826,
      "##ler": 1827,
      "##ided": 1828,
      "While": 1829,
      "stop": 1830,
      "import": 1831,
      "somewh": 1832,
      "fans": 1833,
      "town": 1834,
      "fant": 1835,
      "list": 1836,
      "mor": 1837,
      "comment": 1838,
      "group": 1839,
      "hilar": 1840,
      "Ge": 1841,
      "Every": 1842,
      "walk": 1843,
      "situ": 1844,
      "Con": 1845,
      "cur": 1846,
      "##ts": 1847,
      "inf": 1848,
      "self": 1849,
      "##amed": 1850,
      "Pr": 1851,
      "lives": 1852,
      "Her": 1853,
      "Pl": 1854,
      "val": 1855,
      "##ron": 1856,
      "....": 1857,
      "200": 1858,
      "Do": 1859,
      "daughter": 1860,
      "Am": 1861,
      "##yp": 1862,
      "wants": 1863,
      "May": 1864,
      "##ient": 1865,
      "docum": 1866,
      "etc": 1867,
      "stra": 1868,
      "hon": 1869,
      "vill": 1870,
      "horrible": 1871,
      "##etic": 1872,
      "crit": 1873,
      "##ages": 1874,
      "final": 1875,
      "##use": 1876,
      "##aving": 1877,
      "learn": 1878,
      "Michael": 1879,
      "Mc": 1880,
      "##eter": 1881,
      "throughout": 1882,
      "foot": 1883,
      "##ms": 1884,
      "##iving": 1885,
      "lost": 1886,
      "fine": 1887,
      "works": 1888,
      "fair": 1889,
      "occ": 1890,
      "##ung": 1891,
      "level": 1892,
      "writing": 1893,
      "type": 1894,
      "##using": 1895,
      "##ik": 1896,
      "##rif": 1897,
      "##OT": 1898,
      "gave": 1899,
      "##akes": 1900,
      "parts": 1901,
      "deliver": 1902,
      "med": 1903,
      "hilarious": 1904,
      "history": 1905,
      "##not": 1906,
      "cult": 1907,
      "son": 1908,
      "##ured": 1909,
      "killed": 1910,
      "##ats": 1911,
      "mot": 1912,
      "nov": 1913,
      "support": 1914,
      "fem": 1915,
      "##--": 1916,
      "shoot": 1917,
      "days": 1918,
      "prom": 1919,
      "unc": 1920,
      "annoy": 1921,
      "Gr": 1922,
      "##ett": 1923,
      "##okes": 1924,
      "document": 1925,
      "##orge": 1926,
      "enjoyed": 1927,
      "viewer": 1928,
      "today": 1929,
      "rep": 1930,
      "pick": 1931,
      "touch": 1932,
      "Ke": 1933,
      "appear": 1934,
      "sat": 1935,
      "##ination": 1936,
      "##ude": 1937,
      "aff": 1938,
      "break": 1939,
      "##vable": 1940,
      "known": 1941,
      "genre": 1942,
      "##anger": 1943,
      "tries": 1944,
      "myself": 1945,
      "##ajor": 1946,
      "num": 1947,
      "##antly": 1948,
      "themselves": 1949,
      "col": 1950,
      "##chn": 1951,
      "##ams": 1952,
      "exact": 1953,
      "##play": 1954,
      "late": 1955,
      "says": 1956,
      "turns": 1957,
      "##iet": 1958,
      "Ind": 1959,
      "##ator": 1960,
      "psych": 1961,
      "finally": 1962,
      "experience": 1963,
      "mag": 1964,
      "##oil": 1965,
      "##rack": 1966,
      "contin": 1967,
      "favorite": 1968,
      "typ": 1969,
      "eyes": 1970,
      "took": 1971,
      "happens": 1972,
      "prof": 1973,
      "amazing": 1974,
      "ask": 1975,
      "Any": 1976,
      "rent": 1977,
      "ste": 1978,
      "##ox": 1979,
      "moment": 1980,
      "cost": 1981,
      "##ards": 1982,
      "effort": 1983,
      "!!": 1984,
      "speak": 1985,
      "cool": 1986,
      "wish": 1987,
      "##up": 1988,
      "!<": 1989,
      "##ged": 1990,
      "decent": 1991,
      "##aces": 1992,
      "incred": 1993,
      "##itive": 1994,
      "##ific": 1995,
      "##iculous": 1996,
      "heard": 1997,
      "thinking": 1998,
      "non": 1999,
      "clich": 2000,
      "fig": 2001,
      "perhaps": 2002,
      "tele": 2003,
      "God": 2004,
      "##ution": 2005,
      "chang": 2006,
      "behind": 2007,
      "##ising": 2008,
      "##ior": 2009,
      "intell": 2010,
      "opp": 2011,
      "directed": 2012,
      "##ians": 2013,
      "David": 2014,
      "##eless": 2015,
      "##aves": 2016,
      ".)": 2017,
      "##EA": 2018,
      "##astic": 2019,
      "##nded": 2020,
      "voice": 2021,
      "starts": 2022,
      "##gu": 2023,
      "##ried": 2024,
      "const": 2025,
      "killer": 2026,
      "coming": 2027,
      "Oh": 2028,
      "##ST": 2029,
      "cinemat": 2030,
      "score": 2031,
      "looked": 2032,
      "cheap": 2033,
      "##usb": 2034,
      "##ether": 2035,
      "##owing": 2036,
      "shock": 2037,
      "esc": 2038,
      "told": 2039,
      "white": 2040,
      "order": 2041,
      "sle": 2042,
      "soon": 2043,
      "ant": 2044,
      "##ters": 2045,
      "subject": 2046,
      "Ph": 2047,
      "hold": 2048,
      "involved": 2049,
      "##gn": 2050,
      "talent": 2051,
      "!)": 2052,
      "Com": 2053,
      "##zy": 2054,
      "room": 2055,
      "drug": 2056,
      "major": 2057,
      "##ump": 2058,
      "##usband": 2059,
      "girls": 2060,
      "Dan": 2061,
      "suspense": 2062,
      "Har": 2063,
      "Brit": 2064,
      "English": 2065,
      "feeling": 2066,
      "Tom": 2067,
      "chance": 2068,
      "##like": 2069,
      "ridiculous": 2070,
      "War": 2071,
      "##ex": 2072,
      "shown": 2073,
      "opin": 2074,
      "hit": 2075,
      "##cer": 2076,
      "##ral": 2077,
      "sol": 2078,
      "extremely": 2079,
      "Or": 2080,
      ").<": 2081,
      "evil": 2082,
      "Per": 2083,
      "simple": 2084,
      "taken": 2085,
      "\")": 2086,
      "##nds": 2087,
      "quick": 2088,
      "##iddle": 2089,
      "bus": 2090,
      "including": 2091,
      "husband": 2092,
      "win": 2093,
      "##OR": 2094,
      "##ole": 2095,
      "##oul": 2096,
      "dev": 2097,
      "country": 2098,
      "##ones": 2099,
      "Dr": 2100,
      "leave": 2101,
      "crap": 2102,
      "German": 2103,
      "jokes": 2104,
      "swe": 2105,
      "##aced": 2106,
      "##estern": 2107,
      "across": 2108,
      "predict": 2109,
      "wouldn": 2110,
      "writer": 2111,
      "Je": 2112,
      "##urt": 2113,
      "result": 2114,
      "age": 2115,
      "sym": 2116,
      "return": 2117,
      "desc": 2118,
      "obviously": 2119,
      "Tr": 2120,
      "ago": 2121,
      "20": 2122,
      "##ances": 2123,
      "dog": 2124,
      "##ield": 2125,
      "##rop": 2126,
      "var": 2127,
      "cannot": 2128,
      "released": 2129,
      "##antic": 2130,
      "opening": 2131,
      "violence": 2132,
      "Ad": 2133,
      "##IL": 2134,
      "##ots": 2135,
      "##ational": 2136,
      "reality": 2137,
      "##arch": 2138,
      "##AN": 2139,
      "##ique": 2140,
      "polit": 2141,
      "##iety": 2142,
      "appar": 2143,
      "##ON": 2144,
      "##ctor": 2145,
      "saying": 2146,
      "roles": 2147,
      "##right": 2148,
      "James": 2149,
      "particularly": 2150,
      "197": 2151,
      "Ne": 2152,
      "##vision": 2153,
      "pos": 2154,
      "##outh": 2155,
      "##side": 2156,
      "##yond": 2157,
      "documentary": 2158,
      "##ury": 2159,
      "##rodu": 2160,
      "Pe": 2161,
      "event": 2162,
      "##mak": 2163,
      "bring": 2164,
      "##ugg": 2165,
      "##ering": 2166,
      "four": 2167,
      "subt": 2168,
      "happened": 2169,
      "##ek": 2170,
      "##itting": 2171,
      "build": 2172,
      "dest": 2173,
      "##pping": 2174,
      "##ival": 2175,
      "Although": 2176,
      "##by": 2177,
      "##iction": 2178,
      "##wards": 2179,
      "huge": 2180,
      "weak": 2181,
      "doub": 2182,
      "OK": 2183,
      "ang": 2184,
      "novel": 2185,
      "##ground": 2186,
      "air": 2187,
      "post": 2188,
      "##ered": 2189,
      "stories": 2190,
      "##form": 2191,
      "techn": 2192,
      "lar": 2193,
      "deep": 2194,
      "career": 2195,
      "save": 2196,
      "important": 2197,
      "highly": 2198,
      "exactly": 2199,
      "gun": 2200,
      "##urb": 2201,
      "inde": 2202,
      "pri": 2203,
      "Di": 2204,
      "##esh": 2205,
      "pull": 2206,
      "phot": 2207,
      "Over": 2208,
      "stay": 2209,
      "sold": 2210,
      "turned": 2211,
      "hours": 2212,
      "##ino": 2213,
      "brother": 2214,
      "!\"": 2215,
      "shots": 2216,
      "fa": 2217,
      "##lt": 2218,
      "##und": 2219,
      "yourself": 2220,
      "feat": 2221,
      "honest": 2222,
      "##ili": 2223,
      "First": 2224,
      "body": 2225,
      "gore": 2226,
      "##enty": 2227,
      "198": 2228,
      "words": 2229,
      "prem": 2230,
      "##track": 2231,
      "##oof": 2232,
      "detail": 2233,
      "cinematography": 2234,
      "annoying": 2235,
      "foc": 2236,
      "##ina": 2237,
      "pay": 2238,
      "sister": 2239,
      "silly": 2240,
      "##gy": 2241,
      "##mm": 2242,
      "hot": 2243,
      "##oud": 2244,
      "##ball": 2245,
      "##cks": 2246,
      "knows": 2247,
      "prot": 2248,
      "sometimes": 2249,
      "possible": 2250,
      "forget": 2251,
      "living": 2252,
      "whose": 2253,
      "land": 2254,
      "strange": 2255,
      "taking": 2256,
      "Nor": 2257,
      "opinion": 2258,
      "##lin": 2259,
      "knew": 2260,
      "similar": 2261,
      "##ING": 2262,
      "##aged": 2263,
      "started": 2264,
      "straight": 2265,
      "##co": 2266,
      "soundtrack": 2267,
      "police": 2268,
      "##aur": 2269,
      "running": 2270,
      "female": 2271,
      "cliché": 2272,
      "ill": 2273,
      "narr": 2274,
      "##dy": 2275,
      "##vol": 2276,
      "disappointed": 2277,
      "ones": 2278,
      "treat": 2279,
      "fill": 2280,
      "gang": 2281,
      "ir": 2282,
      "ends": 2283,
      "despite": 2284,
      "cover": 2285,
      "##gan": 2286,
      "change": 2287,
      "among": 2288,
      "Pa": 2289,
      "Rich": 2290,
      "##AT": 2291,
      "attention": 2292,
      "rating": 2293,
      "emb": 2294,
      "local": 2295,
      "problems": 2296,
      "filmmak": 2297,
      "##rew": 2298,
      "Wor": 2299,
      "##ouble": 2300,
      "Jul": 2301,
      "Sam": 2302,
      "vict": 2303,
      "number": 2304,
      "##ection": 2305,
      "usually": 2306,
      "usual": 2307,
      "##rit": 2308,
      "##AR": 2309,
      "##vers": 2310,
      "ten": 2311,
      "musical": 2312,
      "##reci": 2313,
      "cart": 2314,
      "##oad": 2315,
      "##ald": 2316,
      "hell": 2317,
      "respect": 2318,
      "fut": 2319,
      "mostly": 2320,
      "199": 2321,
      "single": 2322,
      "##ential": 2323,
      "eng": 2324,
      "##ky": 2325,
      "##any": 2326,
      "Willi": 2327,
      "##iff": 2328,
      "team": 2329,
      "modern": 2330,
      "inn": 2331,
      "exist": 2332,
      "upon": 2333,
      "remind": 2334,
      "clear": 2335,
      "Gu": 2336,
      "Sch": 2337,
      "hate": 2338,
      "##na": 2339,
      "near": 2340,
      "Frank": 2341,
      "hands": 2342,
      "somewhat": 2343,
      "spir": 2344,
      "equ": 2345,
      "middle": 2346,
      "##aim": 2347,
      "alone": 2348,
      "From": 2349,
      "forg": 2350,
      "sent": 2351,
      "##orable": 2352,
      "##key": 2353,
      "...<": 2354,
      "aren": 2355,
      "##ises": 2356,
      "##mos": 2357,
      "sequence": 2358,
      "talking": 2359,
      "meet": 2360,
      "finds": 2361,
      "beyond": 2362,
      "##ants": 2363,
      "##ished": 2364,
      "ut": 2365,
      "suff": 2366,
      "mist": 2367,
      "##ital": 2368,
      "check": 2369,
      "compl": 2370,
      "##ires": 2371,
      "##athetic": 2372,
      "box": 2373,
      "appreci": 2374,
      "El": 2375,
      "French": 2376,
      "television": 2377,
      "##lic": 2378,
      "previous": 2379,
      "##ubb": 2380,
      "Mon": 2381,
      "plan": 2382,
      "pub": 2383,
      "due": 2384,
      "camp": 2385,
      "explain": 2386,
      "Maybe": 2387,
      "hop": 2388,
      "odd": 2389,
      "Ital": 2390,
      "##usion": 2391,
      "##bel": 2392,
      "##row": 2393,
      "Yes": 2394,
      "##oose": 2395,
      "Unf": 2396,
      "none": 2397,
      "British": 2398,
      "##orry": 2399,
      "stun": 2400,
      "atmos": 2401,
      "##kay": 2402,
      "seriously": 2403,
      "##cious": 2404,
      "pleas": 2405,
      "tried": 2406,
      "pot": 2407,
      "convin": 2408,
      "intellig": 2409,
      "bar": 2410,
      "dull": 2411,
      "##ec": 2412,
      "IM": 2413,
      "twist": 2414,
      "appears": 2415,
      "tells": 2416,
      "episodes": 2417,
      "##arely": 2418,
      "release": 2419,
      "predictable": 2420,
      "free": 2421,
      "mark": 2422,
      "haven": 2423,
      "visual": 2424,
      "doubt": 2425,
      "Aust": 2426,
      "##EN": 2427,
      "moving": 2428,
      "mater": 2429,
      "iss": 2430,
      "eye": 2431,
      "##attle": 2432,
      "enjoyable": 2433,
      "filmed": 2434,
      "happy": 2435,
      "events": 2436,
      "question": 2437,
      "bel": 2438,
      "above": 2439,
      "George": 2440,
      "##ices": 2441,
      "exp": 2442,
      "showing": 2443,
      "sets": 2444,
      "##otic": 2445,
      "##how": 2446,
      "theat": 2447,
      "##ength": 2448,
      "##omp": 2449,
      "scary": 2450,
      "monster": 2451,
      "##upp": 2452,
      "sign": 2453,
      "accept": 2454,
      "##off": 2455,
      "flaw": 2456,
      "romantic": 2457,
      "sequel": 2458,
      "surprised": 2459,
      "Unfortunately": 2460,
      "die": 2461,
      "ways": 2462,
      "crew": 2463,
      "Qu": 2464,
      "giving": 2465,
      "thriller": 2466,
      "present": 2467,
      "material": 2468,
      "slight": 2469,
      "surv": 2470,
      "message": 2471,
      "victim": 2472,
      "feature": 2473,
      "stre": 2474,
      "spoil": 2475,
      "parents": 2476,
      "Tra": 2477,
      "##wise": 2478,
      "aspect": 2479,
      "Fl": 2480,
      "Mov": 2481,
      "reve": 2482,
      "Mor": 2483,
      "Tw": 2484,
      "##iod": 2485,
      "bunch": 2486,
      "##ey": 2487,
      "##aught": 2488,
      "##reen": 2489,
      "sugg": 2490,
      "suggest": 2491,
      "##back": 2492,
      "teach": 2493,
      "clearly": 2494,
      "mil": 2495,
      "meaning": 2496,
      "##....": 2497,
      "personal": 2498,
      "##ension": 2499,
      "##ening": 2500,
      "working": 2501,
      "insp": 2502,
      "large": 2503,
      "named": 2504,
      "Ex": 2505,
      "kept": 2506,
      "sexual": 2507,
      "Ang": 2508,
      "##ula": 2509,
      "Like": 2510,
      "comic": 2511,
      "apart": 2512,
      "Par": 2513,
      "Who": 2514,
      "***": 2515,
      "Hitch": 2516,
      "needs": 2517,
      "Ev": 2518,
      "NOT": 2519,
      "storyline": 2520,
      "believable": 2521,
      "ult": 2522,
      "##inc": 2523,
      "##apan": 2524,
      "theme": 2525,
      "viewing": 2526,
      "songs": 2527,
      "Most": 2528,
      "setting": 2529,
      "##ges": 2530,
      "##asc": 2531,
      "realistic": 2532,
      "minute": 2533,
      "?)": 2534,
      "By": 2535,
      "pat": 2536,
      "sens": 2537,
      "##res": 2538,
      "##pend": 2539,
      "creep": 2540,
      "met": 2541,
      "train": 2542,
      "norm": 2543,
      "##bers": 2544,
      "easy": 2545,
      "Osc": 2546,
      "##ially": 2547,
      "entertainment": 2548,
      "Peter": 2549,
      "comments": 2550,
      "buy": 2551,
      "##cle": 2552,
      "means": 2553,
      "refer": 2554,
      "tre": 2555,
      "yes": 2556,
      "##ceed": 2557,
      "##iest": 2558,
      "period": 2559,
      "falls": 2560,
      "attack": 2561,
      "##uff": 2562,
      "##esy": 2563,
      "##icult": 2564,
      "##ills": 2565,
      "##rol": 2566,
      "adapt": 2567,
      "easily": 2568,
      "##br": 2569,
      "##irt": 2570,
      "introdu": 2571,
      "Direct": 2572,
      "US": 2573,
      "fast": 2574,
      "##real": 2575,
      "typical": 2576,
      "Col": 2577,
      "Overall": 2578,
      "future": 2579,
      "##ored": 2580,
      "Japan": 2581,
      "sil": 2582,
      "##ental": 2583,
      "within": 2584,
      "difficult": 2585,
      "reviews": 2586,
      "editing": 2587,
      "Bar": 2588,
      "##let": 2589,
      "comb": 2590,
      "bother": 2591,
      "##essed": 2592,
      "decided": 2593,
      "Can": 2594,
      "masterp": 2595,
      "dumb": 2596,
      "stere": 2597,
      "##verage": 2598,
      "Its": 2599,
      "contain": 2600,
      "fell": 2601,
      "elements": 2602,
      "Film": 2603,
      "195": 2604,
      "Gra": 2605,
      "writ": 2606,
      "contr": 2607,
      "secret": 2608,
      "clever": 2609,
      "Richard": 2610,
      "truth": 2611,
      "Jim": 2612,
      "brought": 2613,
      "move": 2614,
      "obs": 2615,
      "',": 2616,
      "ra": 2617,
      "Black": 2618,
      "Watch": 2619,
      "city": 2620,
      "##aus": 2621,
      "famous": 2622,
      "situation": 2623,
      "?\"": 2624,
      "##uel": 2625,
      "whether": 2626,
      "superb": 2627,
      "Fin": 2628,
      "overall": 2629,
      "basically": 2630,
      "greatest": 2631,
      "adult": 2632,
      "space": 2633,
      "express": 2634,
      "soc": 2635,
      "IMD": 2636,
      "##aling": 2637,
      "actual": 2638,
      "##agon": 2639,
      "rock": 2640,
      "America": 2641,
      "Good": 2642,
      "background": 2643,
      "feels": 2644,
      "clim": 2645,
      "using": 2646,
      "viewers": 2647,
      "business": 2648,
      "hear": 2649,
      "myst": 2650,
      "'.": 2651,
      "surprise": 2652,
      "Dis": 2653,
      "expected": 2654,
      "front": 2655,
      "Pat": 2656,
      "premise": 2657,
      "##reed": 2658,
      "leads": 2659,
      "weird": 2660,
      "crime": 2661,
      "grand": 2662,
      "Ab": 2663,
      "mix": 2664,
      "##lling": 2665,
      "season": 2666,
      "##phere": 2667,
      "copy": 2668,
      "?<": 2669,
      "gay": 2670,
      "##ee": 2671,
      "average": 2672,
      "##LL": 2673,
      "killing": 2674,
      "sequences": 2675,
      "##ara": 2676,
      "emotional": 2677,
      "/>\"": 2678,
      "acted": 2679,
      "herself": 2680,
      "resp": 2681,
      "points": 2682,
      "flash": 2683,
      "rob": 2684,
      "lots": 2685,
      "footage": 2686,
      "apparently": 2687,
      "Des": 2688,
      "wind": 2689,
      "##ius": 2690,
      "80": 2691,
      "##bo": 2692,
      "law": 2693,
      "##fer": 2694,
      "five": 2695,
      "water": 2696,
      "##atural": 2697,
      "Russ": 2698,
      "lim": 2699,
      "sick": 2700,
      "forward": 2701,
      "inte": 2702,
      "supporting": 2703,
      "nearly": 2704,
      "##he": 2705,
      "Lu": 2706,
      "Let": 2707,
      "bab": 2708,
      "##light": 2709,
      "##lfriend": 2710,
      "##where": 2711,
      "stereot": 2712,
      "auth": 2713,
      "liter": 2714,
      "##atever": 2715,
      "##icks": 2716,
      "wait": 2717,
      "figure": 2718,
      "prison": 2719,
      "theater": 2720,
      "These": 2721,
      "##ogn": 2722,
      "needed": 2723,
      "atmosphere": 2724,
      "tale": 2725,
      "##sw": 2726,
      "##imin": 2727,
      "gone": 2728,
      "rich": 2729,
      "Sim": 2730,
      "catch": 2731,
      "mill": 2732,
      "match": 2733,
      "allow": 2734,
      "conn": 2735,
      "conv": 2736,
      "girlfriend": 2737,
      "Mart": 2738,
      "tast": 2739,
      "##asy": 2740,
      "Paul": 2741,
      "AN": 2742,
      "##OU": 2743,
      "forced": 2744,
      "particular": 2745,
      "utter": 2746,
      "ru": 2747,
      "anyway": 2748,
      "discover": 2749,
      "##ously": 2750,
      "leaves": 2751,
      "##opp": 2752,
      "society": 2753,
      "male": 2754,
      "oper": 2755,
      "##oor": 2756,
      "dan": 2757,
      "write": 2758,
      "Bra": 2759,
      "mad": 2760,
      "##iences": 2761,
      "enc": 2762,
      "##ively": 2763,
      "cheesy": 2764,
      "masterpiece": 2765,
      "##ram": 2766,
      "wit": 2767,
      "##ager": 2768,
      "##acing": 2769,
      "extra": 2770,
      "poorly": 2771,
      "memorable": 2772,
      "pure": 2773,
      "credits": 2774,
      "bored": 2775,
      "fire": 2776,
      "##dden": 2777,
      "shame": 2778,
      "##ries": 2779,
      "spent": 2780,
      "Af": 2781,
      "##ze": 2782,
      "##overs": 2783,
      "public": 2784,
      "fantastic": 2785,
      "hom": 2786,
      "begins": 2787,
      "perfectly": 2788,
      "Great": 2789,
      "avoid": 2790,
      "features": 2791,
      "nor": 2792,
      "##iel": 2793,
      "stri": 2794,
      "Oscar": 2795,
      "##head": 2796,
      "whom": 2797,
      "interested": 2798,
      "##ES": 2799,
      "##erv": 2800,
      "vamp": 2801,
      "became": 2802,
      "emotion": 2803,
      "advent": 2804,
      "focus": 2805,
      "##??": 2806,
      "##omin": 2807,
      "amount": 2808,
      "##urther": 2809,
      "##ived": 2810,
      "Here": 2811,
      "Will": 2812,
      "fi": 2813,
      "dam": 2814,
      "##olf": 2815,
      "unique": 2816,
      "##angu": 2817,
      "profess": 2818,
      "##iliar": 2819,
      "exec": 2820,
      "histor": 2821,
      "Em": 2822,
      "roll": 2823,
      "sudden": 2824,
      "cry": 2825,
      "laughs": 2826,
      "inside": 2827,
      "er": 2828,
      "wood": 2829,
      "brain": 2830,
      "repe": 2831,
      "colle": 2832,
      "quickly": 2833,
      "somehow": 2834,
      "boys": 2835,
      "En": 2836,
      "sorry": 2837,
      "##lier": 2838,
      "##rific": 2839,
      "IMDb": 2840,
      "Eur": 2841,
      "##com": 2842,
      "romance": 2843,
      "##ume": 2844,
      "Gl": 2845,
      "Night": 2846,
      "##to": 2847,
      "##nding": 2848,
      "##...": 2849,
      "meets": 2850,
      "keeps": 2851,
      "total": 2852,
      "dream": 2853,
      "purp": 2854,
      "##aking": 2855,
      "Act": 2856,
      "##more": 2857,
      "scient": 2858,
      "##por": 2859,
      "strugg": 2860,
      "imagine": 2861,
      "please": 2862,
      "Wood": 2863,
      "##cers": 2864,
      "heav": 2865,
      "project": 2866,
      "##oe": 2867,
      "worked": 2868,
      "lame": 2869,
      "##rated": 2870,
      "Inst": 2871,
      "##acy": 2872,
      "record": 2873,
      "York": 2874,
      "band": 2875,
      "##uted": 2876,
      "concept": 2877,
      "unlike": 2878,
      "villain": 2879,
      "##inary": 2880,
      "196": 2881,
      "general": 2882,
      "joke": 2883,
      "##af": 2884,
      "##ned": 2885,
      "##roy": 2886,
      "##ips": 2887,
      "recogn": 2888,
      "Ale": 2889,
      "stage": 2890,
      "agree": 2891,
      "reading": 2892,
      "##OO": 2893,
      "innoc": 2894,
      "powerful": 2895,
      "various": 2896,
      "ultim": 2897,
      "30": 2898,
      "western": 2899,
      "hair": 2900,
      "##aked": 2901,
      "rate": 2902,
      "wasted": 2903,
      "uns": 2904,
      "zomb": 2905,
      "Pro": 2906,
      "Sw": 2907,
      "##isf": 2908,
      "Ter": 2909,
      "jud": 2910,
      "##unt": 2911,
      "badly": 2912,
      "##rupt": 2913,
      "popular": 2914,
      "incredibly": 2915,
      "##par": 2916,
      "##ask": 2917,
      "15": 2918,
      "William": 2919,
      "##cock": 2920,
      "jour": 2921,
      "meant": 2922,
      "fairly": 2923,
      "porn": 2924,
      "disturb": 2925,
      "towards": 2926,
      "##itty": 2927,
      "ended": 2928,
      "offic": 2929,
      "possibly": 2930,
      "cir": 2931,
      "##aud": 2932,
      "animation": 2933,
      "##king": 2934,
      "mystery": 2935,
      "langu": 2936,
      "##lect": 2937,
      "travel": 2938,
      "portrayed": 2939,
      "Italian": 2940,
      "Hor": 2941,
      "battle": 2942,
      "##chie": 2943,
      "reasons": 2944,
      "answ": 2945,
      "starr": 2946,
      "##allow": 2947,
      "cartoon": 2948,
      "writers": 2949,
      "##friend": 2950,
      "laughing": 2951,
      "bed": 2952,
      "##yl": 2953,
      "##uster": 2954,
      "Bill": 2955,
      "Sm": 2956,
      "cap": 2957,
      "clos": 2958,
      "invest": 2959,
      "dance": 2960,
      "##itted": 2961,
      "realize": 2962,
      "beauty": 2963,
      "##arre": 2964,
      "##urd": 2965,
      "sounds": 2966,
      "##rey": 2967,
      "brings": 2968,
      "##oph": 2969,
      "ident": 2970,
      "members": 2971,
      "los": 2972,
      "doll": 2973,
      "nature": 2974,
      "deserves": 2975,
      "Van": 2976,
      "est": 2977,
      "Scott": 2978,
      "occas": 2979,
      "political": 2980,
      "World": 2981,
      "Other": 2982,
      "fasc": 2983,
      "third": 2984,
      "note": 2985,
      "doctor": 2986,
      "admit": 2987,
      "Su": 2988,
      "cond": 2989,
      "caught": 2990,
      "##bert": 2991,
      "attract": 2992,
      "screenplay": 2993,
      "##anks": 2994,
      "earlier": 2995,
      "##uct": 2996,
      "##iced": 2997,
      "##sters": 2998,
      "older": 2999,
      "accident": 3000,
      "eventually": 3001,
      "Mad": 3002,
      "SP": 3003,
      "appro": 3004,
      "phys": 3005,
      "Lee": 3006,
      "anti": 3007,
      "stat": 3008,
      "King": 3009,
      "mood": 3010,
      "trash": 3011,
      "escape": 3012,
      "##gest": 3013,
      "impr": 3014,
      "familiar": 3015,
      "commun": 3016,
      "sleep": 3017,
      "spirit": 3018,
      "ble": 3019,
      "Another": 3020,
      "fails": 3021,
      "Ber": 3022,
      "##ki": 3023,
      "trad": 3024,
      "Star": 3025,
      "depth": 3026,
      "##iers": 3027,
      "manages": 3028,
      "directing": 3029,
      "attempts": 3030,
      "Kar": 3031,
      "suck": 3032,
      "imm": 3033,
      "Ben": 3034,
      "following": 3035,
      "Hitchcock": 3036,
      "stereotyp": 3037,
      "(\"": 3038,
      "Ray": 3039,
      "gh": 3040,
      "und": 3041,
      "##andy": 3042,
      "dramatic": 3043,
      "Boy": 3044,
      "Dra": 3045,
      "##men": 3046,
      "194": 3047,
      "produced": 3048,
      "leading": 3049,
      "common": 3050,
      "Instead": 3051,
      "expecting": 3052,
      "created": 3053,
      "development": 3054,
      "creepy": 3055,
      "##hood": 3056,
      "##bs": 3057,
      "hy": 3058,
      "##emy": 3059,
      "plain": 3060,
      "telling": 3061,
      "fighting": 3062,
      "ign": 3063,
      "plenty": 3064,
      "cross": 3065,
      "##ases": 3066,
      "whatever": 3067,
      "flat": 3068,
      "Joe": 3069,
      "deb": 3070,
      "arri": 3071,
      "##cessary": 3072,
      "symp": 3073,
      "forgot": 3074,
      "Love": 3075,
      "##izing": 3076,
      "idi": 3077,
      "Japanese": 3078,
      "outside": 3079,
      "ideas": 3080,
      "era": 3081,
      "search": 3082,
      "##overn": 3083,
      "missing": 3084,
      "##medi": 3085,
      "revol": 3086,
      "neg": 3087,
      "##others": 3088,
      "##oman": 3089,
      "##iously": 3090,
      "indeed": 3091,
      "Park": 3092,
      "cute": 3093,
      "requ": 3094,
      "Movie": 3095,
      "funn": 3096,
      "ess": 3097,
      "track": 3098,
      "talented": 3099,
      "biz": 3100,
      "##arth": 3101,
      "former": 3102,
      "##ivid": 3103,
      "pace": 3104,
      "unless": 3105,
      "Cr": 3106,
      "Ye": 3107,
      "##iny": 3108,
      "brief": 3109,
      "fit": 3110,
      "filmmakers": 3111,
      "Bet": 3112,
      "Ser": 3113,
      "##lu": 3114,
      "create": 3115,
      "subtle": 3116,
      "store": 3117,
      "Where": 3118,
      "relig": 3119,
      "##work": 3120,
      "react": 3121,
      "##ades": 3122,
      "directors": 3123,
      "##annel": 3124,
      "##ites": 3125,
      "immedi": 3126,
      "recently": 3127,
      "Mo": 3128,
      "leg": 3129,
      "terror": 3130,
      "images": 3131,
      "amb": 3132,
      "follows": 3133,
      "achie": 3134,
      "##ieces": 3135,
      "##ounter": 3136,
      "tort": 3137,
      "intri": 3138,
      "earth": 3139,
      "nud": 3140,
      "##uce": 3141,
      "reach": 3142,
      "remake": 3143,
      "sci": 3144,
      "humour": 3145,
      "company": 3146,
      "90": 3147,
      "fash": 3148,
      "complex": 3149,
      "cause": 3150,
      "died": 3151,
      "design": 3152,
      "control": 3153,
      "Charles": 3154,
      "positive": 3155,
      "slightly": 3156,
      "Angel": 3157,
      "god": 3158,
      "credit": 3159,
      "##uine": 3160,
      "##ague": 3161,
      "missed": 3162,
      "High": 3163,
      "sum": 3164,
      "##umes": 3165,
      "remain": 3166,
      "##arrass": 3167,
      "medi": 3168,
      "mass": 3169,
      "##ishing": 3170,
      "crazy": 3171,
      "regard": 3172,
      "waiting": 3173,
      "soul": 3174,
      "##ED": 3175,
      "Europe": 3176,
      "trail": 3177,
      "portrayal": 3178,
      "value": 3179,
      "filled": 3180,
      "repr": 3181,
      "party": 3182,
      "appreciate": 3183,
      "Director": 3184,
      "fly": 3185,
      "mel": 3186,
      "193": 3187,
      "mentioned": 3188,
      "color": 3189,
      "bomb": 3190,
      "pack": 3191,
      "wrote": 3192,
      "genuine": 3193,
      "Perhaps": 3194,
      "##aff": 3195,
      "approach": 3196,
      "Te": 3197,
      "mer": 3198,
      "rad": 3199,
      "rece": 3200,
      "##rage": 3201,
      "##anda": 3202,
      "##ibility": 3203,
      "Sec": 3204,
      "##illing": 3205,
      "interview": 3206,
      "younger": 3207,
      "embarrass": 3208,
      "Disney": 3209,
      "language": 3210,
      "Ry": 3211,
      "garb": 3212,
      "##lict": 3213,
      "##uter": 3214,
      "Dead": 3215,
      "##gress": 3216,
      "lady": 3217,
      "longer": 3218,
      "depict": 3219,
      "convincing": 3220,
      "fol": 3221,
      "##oved": 3222,
      "stick": 3223,
      "sees": 3224,
      "##belie": 3225,
      "##ille": 3226,
      "pointless": 3227,
      "situations": 3228,
      "cat": 3229,
      "##isc": 3230,
      "inform": 3231,
      "social": 3232,
      "uses": 3233,
      "ground": 3234,
      "entirely": 3235,
      "draw": 3236,
      "Lou": 3237,
      "##BC": 3238,
      "island": 3239,
      "##istry": 3240,
      "##ai": 3241,
      "##go": 3242,
      "ine": 3243,
      "news": 3244,
      "mach": 3245,
      "danger": 3246,
      "mid": 3247,
      "tension": 3248,
      "##itation": 3249,
      "compet": 3250,
      "avail": 3251,
      "week": 3252,
      "nudity": 3253,
      "##anch": 3254,
      "beat": 3255,
      "ship": 3256,
      "##aging": 3257,
      "claim": 3258,
      "decides": 3259,
      "hardly": 3260,
      "bizarre": 3261,
      "Bob": 3262,
      "Jones": 3263,
      "fake": 3264,
      "##ology": 3265,
      "critic": 3266,
      "college": 3267,
      "fashion": 3268,
      "luck": 3269,
      "##esome": 3270,
      "step": 3271,
      "##irty": 3272,
      "##ivers": 3273,
      "purpose": 3274,
      "Big": 3275,
      "pathetic": 3276,
      "##aming": 3277,
      "demon": 3278,
      "##ipp": 3279,
      "House": 3280,
      "##ma": 3281,
      "likes": 3282,
      "Austral": 3283,
      "choice": 3284,
      "100": 3285,
      "decide": 3286,
      "producers": 3287,
      "Hol": 3288,
      "##ana": 3289,
      "progr": 3290,
      "accent": 3291,
      "potential": 3292,
      "50": 3293,
      "Mur": 3294,
      "##zz": 3295,
      "intelligent": 3296,
      "further": 3297,
      "##ossible": 3298,
      "sweet": 3299,
      "myster": 3300,
      "Cra": 3301,
      "gag": 3302,
      "##uit": 3303,
      "##ares": 3304,
      "##ective": 3305,
      "##ization": 3306,
      "##while": 3307,
      "culture": 3308,
      "garbage": 3309,
      "##eem": 3310,
      "##ls": 3311,
      "genius": 3312,
      "delight": 3313,
      "involving": 3314,
      "unfortunately": 3315,
      "century": 3316,
      "##erely": 3317,
      "biggest": 3318,
      "dim": 3319,
      "wall": 3320,
      "##lusion": 3321,
      "##ilt": 3322,
      "##sequ": 3323,
      "street": 3324,
      "bott": 3325,
      "kick": 3326,
      "incredible": 3327,
      "Rock": 3328,
      "##gic": 3329,
      "##VER": 3330,
      "chem": 3331,
      "values": 3332,
      "##ste": 3333,
      "ups": 3334,
      "Still": 3335,
      "##ette": 3336,
      "moves": 3337,
      "prop": 3338,
      "amusing": 3339,
      "accur": 3340,
      "Indian": 3341,
      "solid": 3342,
      "Very": 3343,
      "satisf": 3344,
      "test": 3345,
      "unbelie": 3346,
      "road": 3347,
      "smart": 3348,
      "exciting": 3349,
      "Conn": 3350,
      "##ding": 3351,
      "##arily": 3352,
      "Never": 3353,
      "OF": 3354,
      "tough": 3355,
      "questions": 3356,
      "##isingly": 3357,
      "otherwise": 3358,
      "violent": 3359,
      "Ag": 3360,
      "spect": 3361,
      "##sh": 3362,
      "##ios": 3363,
      "wild": 3364,
      "brut": 3365,
      "trouble": 3366,
      "##elle": 3367,
      "product": 3368,
      "married": 3369,
      "oh": 3370,
      "##ateur": 3371,
      "office": 3372,
      "##ribly": 3373,
      "Two": 3374,
      "normal": 3375,
      "Red": 3376,
      "##vent": 3377,
      "successful": 3378,
      "Bad": 3379,
      "Sure": 3380,
      "##OM": 3381,
      "##ero": 3382,
      "##eren": 3383,
      "##appe": 3384,
      "boyfriend": 3385,
      "changed": 3386,
      "Mat": 3387,
      "##IS": 3388,
      "issues": 3389,
      "II": 3390,
      "##alth": 3391,
      "manner": 3392,
      "##berg": 3393,
      "desper": 3394,
      "okay": 3395,
      "disg": 3396,
      "See": 3397,
      "Anyway": 3398,
      "##here": 3399,
      "##inger": 3400,
      "##ivil": 3401,
      "##andom": 3402,
      "twists": 3403,
      "Fran": 3404,
      "##alt": 3405,
      "##unny": 3406,
      "proper": 3407,
      "available": 3408,
      "barely": 3409,
      "host": 3410,
      "##ened": 3411,
      "ability": 3412,
      "suspect": 3413,
      "breat": 3414,
      "bought": 3415,
      "din": 3416,
      "jump": 3417,
      "weren": 3418,
      "##ashing": 3419,
      "thinks": 3420,
      "spend": 3421,
      "glad": 3422,
      "Ir": 3423,
      "govern": 3424,
      "##iment": 3425,
      "alive": 3426,
      "taste": 3427,
      "Jew": 3428,
      "fore": 3429,
      "effective": 3430,
      "reveal": 3431,
      "##venge": 3432,
      "remark": 3433,
      "##ified": 3434,
      "casting": 3435,
      "Sn": 3436,
      "##OW": 3437,
      "gold": 3438,
      "spot": 3439,
      "fascin": 3440,
      "SPO": 3441,
      "##irth": 3442,
      "recent": 3443,
      "continu": 3444,
      "East": 3445,
      "length": 3446,
      "amateur": 3447,
      "Alex": 3448,
      "##bor": 3449,
      "##ander": 3450,
      "##osp": 3451,
      "Str": 3452,
      "minor": 3453,
      "considering": 3454,
      "soldiers": 3455,
      "##ging": 3456,
      "##min": 3457,
      "fear": 3458,
      "Only": 3459,
      "ST": 3460,
      "rap": 3461,
      "##nie": 3462,
      "##boy": 3463,
      "##****": 3464,
      "fat": 3465,
      "sitting": 3466,
      "##cif": 3467,
      "repres": 3468,
      "SPOIL": 3469,
      "City": 3470,
      "ball": 3471,
      "##kin": 3472,
      "##itary": 3473,
      "showed": 3474,
      "##ifully": 3475,
      "impressive": 3476,
      "Dark": 3477,
      "bull": 3478,
      "log": 3479,
      "awesome": 3480,
      "##standing": 3481,
      "passion": 3482,
      "immediately": 3483,
      "##cceed": 3484,
      "##IT": 3485,
      "##idence": 3486,
      "Che": 3487,
      "##ensive": 3488,
      "SPOILER": 3489,
      "Bel": 3490,
      "Mel": 3491,
      "##iding": 3492,
      "destroy": 3493,
      "journey": 3494,
      "Im": 3495,
      "state": 3496,
      "notice": 3497,
      "likely": 3498,
      "##ford": 3499,
      "drag": 3500,
      "failed": 3501,
      "cold": 3502,
      "hang": 3503,
      "loud": 3504,
      "##gen": 3505,
      "##icide": 3506,
      "door": 3507,
      "concern": 3508,
      "##cast": 3509,
      "##edy": 3510,
      "succeed": 3511,
      "ord": 3512,
      "scenery": 3513,
      "kills": 3514,
      "affair": 3515,
      "Way": 3516,
      "##LE": 3517,
      "added": 3518,
      "fantasy": 3519,
      "changes": 3520,
      "Despite": 3521,
      "Mark": 3522,
      "Thom": 3523,
      "##ands": 3524,
      "compared": 3525,
      "shooting": 3526,
      "respons": 3527,
      "repl": 3528,
      "leaving": 3529,
      "##elly": 3530,
      "drink": 3531,
      "Jean": 3532,
      "literally": 3533,
      "suddenly": 3534,
      "gem": 3535,
      "carry": 3536,
      "cinematic": 3537,
      "har": 3538,
      "lab": 3539,
      "impossible": 3540,
      "Best": 3541,
      "mouth": 3542,
      "pieces": 3543,
      "##ka": 3544,
      "plus": 3545,
      "compe": 3546,
      "alien": 3547,
      "sexy": 3548,
      "presence": 3549,
      "standard": 3550,
      "emotions": 3551,
      "basic": 3552,
      "program": 3553,
      "##ify": 3554,
      "##idden": 3555,
      "investig": 3556,
      "Gold": 3557,
      "Pol": 3558,
      "##xic": 3559,
      "##aper": 3560,
      "opportun": 3561,
      "dancing": 3562,
      "disturbing": 3563,
      "Go": 3564,
      "describ": 3565,
      "##board": 3566,
      "Tim": 3567,
      "names": 3568,
      "studio": 3569,
      "impression": 3570,
      "chemistry": 3571,
      "key": 3572,
      "considered": 3573,
      "Afric": 3574,
      "ast": 3575,
      "##gend": 3576,
      "makers": 3577,
      "Bec": 3578,
      "photography": 3579,
      "Ryan": 3580,
      "Lond": 3581,
      "random": 3582,
      "singing": 3583,
      "Sl": 3584,
      "Spe": 3585,
      "##eg": 3586,
      "##field": 3587,
      "fresh": 3588,
      "##athy": 3589,
      "suppose": 3590,
      "protagon": 3591,
      "Paris": 3592,
      "##con": 3593,
      "##come": 3594,
      "##iles": 3595,
      "##izes": 3596,
      "flashback": 3597,
      "##ales": 3598,
      "suit": 3599,
      "explo": 3600,
      "indust": 3601,
      "Because": 3602,
      "London": 3603,
      "jo": 3604,
      "##ream": 3605,
      "commer": 3606,
      "prep": 3607,
      "occur": 3608,
      "Earth": 3609,
      "##erm": 3610,
      "wee": 3611,
      "audiences": 3612,
      "Gar": 3613,
      "##asher": 3614,
      "force": 3615,
      "runs": 3616,
      "Miss": 3617,
      "Ple": 3618,
      "##wor": 3619,
      "##read": 3620,
      "unex": 3621,
      "historical": 3622,
      "Mac": 3623,
      "##round": 3624,
      "##sey": 3625,
      "insult": 3626,
      "##oken": 3627,
      "intended": 3628,
      "##iring": 3629,
      "adventure": 3630,
      "Sci": 3631,
      "burn": 3632,
      "loose": 3633,
      "##bol": 3634,
      "neither": 3635,
      "producer": 3636,
      "nowhere": 3637,
      "##ID": 3638,
      "##ionally": 3639,
      "##arsh": 3640,
      "thrown": 3641,
      "##ospital": 3642,
      "af": 3643,
      "##bl": 3644,
      "##RE": 3645,
      "threat": 3646,
      "depress": 3647,
      "trip": 3648,
      "pun": 3649,
      "##fort": 3650,
      "##str": 3651,
      "##awn": 3652,
      "month": 3653,
      "Chris": 3654,
      "Many": 3655,
      "##----": 3656,
      "innocent": 3657,
      "Ap": 3658,
      "##gar": 3659,
      "##ali": 3660,
      "terms": 3661,
      "conflict": 3662,
      "witness": 3663,
      "fool": 3664,
      "natural": 3665,
      "##ena": 3666,
      "Though": 3667,
      "##une": 3668,
      "remains": 3669,
      "Bruce": 3670,
      "Charlie": 3671,
      "Jeff": 3672,
      "details": 3673,
      "70": 3674,
      "Kn": 3675,
      "Kr": 3676,
      "squ": 3677,
      "##pher": 3678,
      "desert": 3679,
      "favour": 3680,
      "curr": 3681,
      "stunning": 3682,
      "13": 3683,
      "Lar": 3684,
      "Too": 3685,
      "##ooks": 3686,
      "appeal": 3687,
      "beautifully": 3688,
      "##oking": 3689,
      "behav": 3690,
      "redeem": 3691,
      "escap": 3692,
      "building": 3693,
      "starring": 3694,
      "Cam": 3695,
      "graph": 3696,
      "crimin": 3697,
      "complain": 3698,
      "intrigu": 3699,
      "managed": 3700,
      "author": 3701,
      "##itude": 3702,
      "science": 3703,
      "offer": 3704,
      "finish": 3705,
      "compar": 3706,
      "influ": 3707,
      "appearance": 3708,
      "climax": 3709,
      "Bond": 3710,
      "##AS": 3711,
      "##rel": 3712,
      "puts": 3713,
      "constantly": 3714,
      "mult": 3715,
      "##estival": 3716,
      "soft": 3717,
      "somewhere": 3718,
      "Fox": 3719,
      "ce": 3720,
      "pers": 3721,
      "worthy": 3722,
      "student": 3723,
      "government": 3724,
      "18": 3725,
      "CG": 3726,
      "Er": 3727,
      "Ham": 3728,
      "pract": 3729,
      "recommended": 3730,
      "##ological": 3731,
      "Bri": 3732,
      "Jane": 3733,
      "Naz": 3734,
      "places": 3735,
      "loves": 3736,
      "Everything": 3737,
      "More": 3738,
      "race": 3739,
      "surround": 3740,
      "##lessly": 3741,
      "individ": 3742,
      "stands": 3743,
      "commercial": 3744,
      "Cor": 3745,
      "WW": 3746,
      "rated": 3747,
      "##esides": 3748,
      "##itions": 3749,
      "##ected": 3750,
      "Stan": 3751,
      "baby": 3752,
      "million": 3753,
      "heavy": 3754,
      "##ech": 3755,
      "filming": 3756,
      "feelings": 3757,
      "object": 3758,
      "books": 3759,
      "location": 3760,
      "Russian": 3761,
      "##oices": 3762,
      "comedies": 3763,
      "Nothing": 3764,
      "narrative": 3765,
      "vampire": 3766,
      "##aven": 3767,
      "##ring": 3768,
      "##wr": 3769,
      "intense": 3770,
      "##kn": 3771,
      "ghost": 3772,
      "Thomas": 3773,
      "Yet": 3774,
      "##icated": 3775,
      "computer": 3776,
      "motion": 3777,
      "drugs": 3778,
      "Av": 3779,
      "ca": 3780,
      "board": 3781,
      "conclusion": 3782,
      "Jer": 3783,
      "Tar": 3784,
      "lived": 3785,
      "process": 3786,
      "lovely": 3787,
      "##ropri": 3788,
      "Jon": 3789,
      "##ores": 3790,
      "##ica": 3791,
      "chall": 3792,
      "disaster": 3793,
      "Show": 3794,
      "surprisingly": 3795,
      "spl": 3796,
      "sav": 3797,
      "##mas": 3798,
      "Robin": 3799,
      "disappointing": 3800,
      "##abb": 3801,
      "slasher": 3802,
      "12": 3803,
      "ur": 3804,
      "throw": 3805,
      "correct": 3806,
      "military": 3807,
      "Gir": 3808,
      "tired": 3809,
      "##stem": 3810,
      "silent": 3811,
      "Somet": 3812,
      "tone": 3813,
      "wise": 3814,
      "acts": 3815,
      "##ruct": 3816,
      "faith": 3817,
      "ultimately": 3818,
      "individual": 3819,
      "holes": 3820,
      "ride": 3821,
      "laughable": 3822,
      "magn": 3823,
      "faces": 3824,
      "ener": 3825,
      "##orts": 3826,
      "terrific": 3827,
      "presented": 3828,
      "medioc": 3829,
      "six": 3830,
      "laughed": 3831,
      "Bat": 3832,
      "Bab": 3833,
      "date": 3834,
      "pair": 3835,
      "neigh": 3836,
      "hoping": 3837,
      "Martin": 3838,
      "Barb": 3839,
      "rac": 3840,
      "##erous": 3841,
      "##ining": 3842,
      "##oned": 3843,
      "##imp": 3844,
      "##room": 3845,
      "students": 3846,
      "moral": 3847,
      "Gen": 3848,
      "Walk": 3849,
      "crow": 3850,
      "Shakes": 3851,
      "##anna": 3852,
      "painful": 3853,
      "slowly": 3854,
      "costumes": 3855,
      "##owers": 3856,
      "##entially": 3857,
      "##riage": 3858,
      "flicks": 3859,
      "adaptation": 3860,
      "fiction": 3861,
      "##bb": 3862,
      "##vert": 3863,
      "haun": 3864,
      "cops": 3865,
      "People": 3866,
      "aspects": 3867,
      "Bur": 3868,
      "boss": 3869,
      "##eal": 3870,
      "div": 3871,
      "giant": 3872,
      "symbol": 3873,
      "##stein": 3874,
      "nu": 3875,
      "##IG": 3876,
      "/>-": 3877,
      "content": 3878,
      "Christian": 3879,
      "Hell": 3880,
      "Western": 3881,
      "##iven": 3882,
      "##opher": 3883,
      "##ode": 3884,
      "##ability": 3885,
      "##ploy": 3886,
      "dress": 3887,
      "\".<": 3888,
      "rip": 3889,
      "##OV": 3890,
      "##urch": 3891,
      "Steph": 3892,
      "South": 3893,
      "numb": 3894,
      "rare": 3895,
      "##wart": 3896,
      "lif": 3897,
      "Anne": 3898,
      "clean": 3899,
      "addition": 3900,
      "Once": 3901,
      "utterly": 3902,
      "bur": 3903,
      "##rick": 3904,
      "legend": 3905,
      "Chap": 3906,
      "confusing": 3907,
      "irrit": 3908,
      "tradition": 3909,
      "Hard": 3910,
      "Wil": 3911,
      "##ppy": 3912,
      "folks": 3913,
      "mysterious": 3914,
      "Dar": 3915,
      "##ja": 3916,
      "everybody": 3917,
      "melod": 3918,
      "information": 3919,
      "fascinating": 3920,
      "Sad": 3921,
      "West": 3922,
      "intern": 3923,
      "discuss": 3924,
      "touching": 3925,
      "Shakespe": 3926,
      "Both": 3927,
      "disappointment": 3928,
      "developed": 3929,
      "11": 3930,
      "Bro": 3931,
      "Day": 3932,
      "revenge": 3933,
      "qual": 3934,
      "expectations": 3935,
      "adds": 3936,
      "excuse": 3937,
      "unbelievable": 3938,
      "disgust": 3939,
      "charm": 3940,
      ".....": 3941,
      "dread": 3942,
      "Kevin": 3943,
      "breath": 3944,
      "hospital": 3945,
      "##ta": 3946,
      "##onna": 3947,
      "club": 3948,
      "image": 3949,
      "seemingly": 3950,
      "generally": 3951,
      "oppos": 3952,
      "Did": 3953,
      "nast": 3954,
      "Fred": 3955,
      "system": 3956,
      "Men": 3957,
      "round": 3958,
      "##CH": 3959,
      "init": 3960,
      "suicide": 3961,
      "##ples": 3962,
      "drunk": 3963,
      "Christmas": 3964,
      "impressed": 3965,
      "contains": 3966,
      "AND": 3967,
      "spectac": 3968,
      "opportunity": 3969,
      "Co": 3970,
      "Hen": 3971,
      "sight": 3972,
      "##rest": 3973,
      "##gly": 3974,
      "finding": 3975,
      "resem": 3976,
      "include": 3977,
      "cell": 3978,
      "charming": 3979,
      "themes": 3980,
      "kidn": 3981,
      "mainly": 3982,
      "##ledge": 3983,
      "Steve": 3984,
      "critics": 3985,
      "##AD": 3986,
      "##ched": 3987,
      "subst": 3988,
      "Fe": 3989,
      "virt": 3990,
      "##ris": 3991,
      "##vey": 3992,
      "anymore": 3993,
      "Americans": 3994,
      "nons": 3995,
      "##eper": 3996,
      "##gent": 3997,
      "##ita": 3998,
      "##ift": 3999,
      "Phil": 4000,
      "allowed": 4001,
      "naked": 4002,
      "outstanding": 4003,
      "##elling": 4004,
      "resc": 4005,
      "edge": 4006,
      "##mes": 4007,
      "##iday": 4008,
      "##ules": 4009,
      "impl": 4010,
      "explan": 4011,
      "relationships": 4012,
      "dro": 4013,
      "station": 4014,
      "thank": 4015,
      "animated": 4016,
      "Harry": 4017,
      "fully": 4018,
      "consist": 4019,
      "crowd": 4020,
      "bi": 4021,
      "##reg": 4022,
      "phone": 4023,
      "magic": 4024,
      "mistake": 4025,
      "Billy": 4026,
      "Min": 4027,
      "Ford": 4028,
      "wide": 4029,
      "##asing": 4030,
      "chase": 4031,
      "serv": 4032,
      "surf": 4033,
      "absurd": 4034,
      "Guy": 4035,
      "##pendent": 4036,
      "dies": 4037,
      "##AL": 4038,
      "##aries": 4039,
      "convers": 4040,
      "happening": 4041,
      "confused": 4042,
      "forgotten": 4043,
      "industry": 4044,
      "Sand": 4045,
      "##urse": 4046,
      "##oughly": 4047,
      "element": 4048,
      "lighting": 4049,
      "ri": 4050,
      "##agers": 4051,
      "lover": 4052,
      "knowing": 4053,
      "crash": 4054,
      "remote": 4055,
      "helps": 4056,
      "lacks": 4057,
      "walking": 4058,
      "answer": 4059,
      "Moore": 4060,
      "Laur": 4061,
      "paid": 4062,
      "forever": 4063,
      "##anted": 4064,
      "Stre": 4065,
      "Steven": 4066,
      "Space": 4067,
      "equally": 4068,
      "##known": 4069,
      "?!": 4070,
      "eat": 4071,
      "elect": 4072,
      "Smith": 4073,
      "push": 4074,
      "##illa": 4075,
      "##rog": 4076,
      "prefer": 4077,
      "##!!!!": 4078,
      "difference": 4079,
      "creative": 4080,
      "Bo": 4081,
      "dubb": 4082,
      "actions": 4083,
      "##odies": 4084,
      "prim": 4085,
      "##soever": 4086,
      "plots": 4087,
      "melodram": 4088,
      "Dou": 4089,
      "Jason": 4090,
      "hun": 4091,
      "hook": 4092,
      "led": 4093,
      "##table": 4094,
      "##ural": 4095,
      "speech": 4096,
      "putting": 4097,
      "Jud": 4098,
      "Mary": 4099,
      "Part": 4100,
      "Sy": 4101,
      "Sher": 4102,
      "whatsoever": 4103,
      "cloth": 4104,
      "delivers": 4105,
      "honestly": 4106,
      "North": 4107,
      "market": 4108,
      "##time": 4109,
      "##ront": 4110,
      "nobody": 4111,
      "likable": 4112,
      "Carl": 4113,
      "collection": 4114,
      "actresses": 4115,
      "multi": 4116,
      "dad": 4117,
      "gri": 4118,
      "pil": 4119,
      "##xual": 4120,
      "##uts": 4121,
      "aside": 4122,
      "share": 4123,
      "chick": 4124,
      "offers": 4125,
      "Okay": 4126,
      "rented": 4127,
      "##IE": 4128,
      "onto": 4129,
      "held": 4130,
      "##ops": 4131,
      "willing": 4132,
      "disappe": 4133,
      "surreal": 4134,
      "Jackson": 4135,
      "compelling": 4136,
      "Shakespeare": 4137,
      "Ram": 4138,
      "##ville": 4139,
      "##anced": 4140,
      "plane": 4141,
      "wearing": 4142,
      "##osh": 4143,
      "slap": 4144,
      "fault": 4145,
      "rout": 4146,
      "##ham": 4147,
      "unreal": 4148,
      "##tend": 4149,
      "horse": 4150,
      "asked": 4151,
      "professional": 4152,
      "Hel": 4153,
      "bene": 4154,
      "gorge": 4155,
      "ready": 4156,
      "Master": 4157,
      "##oes": 4158,
      "contem": 4159,
      "wondering": 4160,
      "McC": 4161,
      "scientist": 4162,
      "estab": 4163,
      "funniest": 4164,
      "Please": 4165,
      "**": 4166,
      "aim": 4167,
      "double": 4168,
      "eight": 4169,
      "##inci": 4170,
      "##oring": 4171,
      "weap": 4172,
      "defe": 4173,
      "stuck": 4174,
      "personality": 4175,
      "appeared": 4176,
      "drawn": 4177,
      "exception": 4178,
      "Christopher": 4179,
      "shocking": 4180,
      "thor": 4181,
      "##eral": 4182,
      "##inct": 4183,
      "lies": 4184,
      "area": 4185,
      "##ribe": 4186,
      "underst": 4187,
      "Ann": 4188,
      "##entional": 4189,
      "helped": 4190,
      "friendship": 4191,
      "Far": 4192,
      "Law": 4193,
      "mart": 4194,
      "##yr": 4195,
      "##ueen": 4196,
      "highlight": 4197,
      "creature": 4198,
      "pictures": 4199,
      "Mexic": 4200,
      "picked": 4201,
      "teacher": 4202,
      "bottom": 4203,
      "40": 4204,
      "ON": 4205,
      "Tex": 4206,
      "joy": 4207,
      "##win": 4208,
      "Their": 4209,
      "##oses": 4210,
      "strength": 4211,
      "bits": 4212,
      "Death": 4213,
      "drive": 4214,
      "reminded": 4215,
      "flaws": 4216,
      "victims": 4217,
      "aut": 4218,
      "##AY": 4219,
      "zombie": 4220,
      "negative": 4221,
      "Dem": 4222,
      "Lyn": 4223,
      "ment": 4224,
      "member": 4225,
      "shouldn": 4226,
      "born": 4227,
      "priest": 4228,
      "Second": 4229,
      "CGI": 4230,
      "frust": 4231,
      "blind": 4232,
      "##ountain": 4233,
      "Howard": 4234,
      "soldier": 4235,
      "Life": 4236,
      "Max": 4237,
      "##IC": 4238,
      "##ession": 4239,
      "##pper": 4240,
      "traged": 4241,
      "provides": 4242,
      "attractive": 4243,
      "Mer": 4244,
      "sour": 4245,
      "##uous": 4246,
      "##lled": 4247,
      "##ilities": 4248,
      "moved": 4249,
      "channel": 4250,
      "wanting": 4251,
      "grow": 4252,
      "commentary": 4253,
      "La": 4254,
      "Sar": 4255,
      "civil": 4256,
      "pra": 4257,
      "##port": 4258,
      "sun": 4259,
      "sucks": 4260,
      "##udd": 4261,
      "twice": 4262,
      "supposedly": 4263,
      "Ms": 4264,
      "fort": 4265,
      "trailer": 4266,
      "merely": 4267,
      "##een": 4268,
      "##ha": 4269,
      "display": 4270,
      "interp": 4271,
      "continue": 4272,
      "opera": 4273,
      "000": 4274,
      "freak": 4275,
      "##eron": 4276,
      "##amb": 4277,
      "summ": 4278,
      "progress": 4279,
      "##azz": 4280,
      "leader": 4281,
      "provide": 4282,
      "becoming": 4283,
      "???": 4284,
      "gorgeous": 4285,
      ".,": 4286,
      "Bas": 4287,
      "Es": 4288,
      "Out": 4289,
      "Sus": 4290,
      "##oted": 4291,
      "##oop": 4292,
      "craft": 4293,
      "epic": 4294,
      "listen": 4295,
      "Canad": 4296,
      "80s": 4297,
      "Look": 4298,
      "ahead": 4299,
      "thin": 4300,
      "##illed": 4301,
      "impact": 4302,
      "imagination": 4303,
      ".'": 4304,
      "Harr": 4305,
      "mir": 4306,
      "##).": 4307,
      "##ama": 4308,
      "env": 4309,
      "trust": 4310,
      "artist": 4311,
      "lay": 4312,
      "path": 4313,
      "##ini": 4314,
      "stock": 4315,
      "unus": 4316,
      "realized": 4317,
      "serial": 4318,
      "##appy": 4319,
      "explos": 4320,
      "Julie": 4321,
      "gags": 4322,
      "Having": 4323,
      "Little": 4324,
      "Mike": 4325,
      "punch": 4326,
      "##AC": 4327,
      "##ators": 4328,
      "Young": 4329,
      "standards": 4330,
      "boat": 4331,
      "falling": 4332,
      "Finally": 4333,
      "physical": 4334,
      "IS": 4335,
      "Sil": 4336,
      "VH": 4337,
      "tar": 4338,
      "arg": 4339,
      "agent": 4340,
      "compare": 4341,
      "understanding": 4342,
      "marriage": 4343,
      "mediocre": 4344,
      "Rad": 4345,
      "load": 4346,
      "##father": 4347,
      "##ued": 4348,
      "thus": 4349,
      "sto": 4350,
      "nasty": 4351,
      "Ac": 4352,
      "dying": 4353,
      "##iens": 4354,
      "##text": 4355,
      "Brown": 4356,
      "artistic": 4357,
      "superior": 4358,
      "memory": 4359,
      "inspired": 4360,
      "adults": 4361,
      "##iber": 4362,
      "##gl": 4363,
      "separ": 4364,
      "perform": 4365,
      "lets": 4366,
      "speaking": 4367,
      "pleasure": 4368,
      "torture": 4369,
      "accurate": 4370,
      "Since": 4371,
      "began": 4372,
      "##terest": 4373,
      "hasn": 4374,
      "unknown": 4375,
      "references": 4376,
      "intriguing": 4377,
      "Mag": 4378,
      "den": 4379,
      "ge": 4380,
      "pupp": 4381,
      "tour": 4382,
      "##mi": 4383,
      "##lyn": 4384,
      "##raid": 4385,
      "arch": 4386,
      "blue": 4387,
      "interact": 4388,
      "deserve": 4389,
      "wooden": 4390,
      "Jr": 4391,
      "games": 4392,
      "vs": 4393,
      "##ousy": 4394,
      "watchable": 4395,
      "thanks": 4396,
      "##pected": 4397,
      "calls": 4398,
      "followed": 4399,
      "assist": 4400,
      "seconds": 4401,
      "teenage": 4402,
      "angry": 4403,
      "clichés": 4404,
      "belong": 4405,
      "religious": 4406,
      "fu": 4407,
      "##anish": 4408,
      "##itor": 4409,
      "##arded": 4410,
      "tragic": 4411,
      "turning": 4412,
      "captured": 4413,
      "introduced": 4414,
      "mob": 4415,
      "##mar": 4416,
      "broad": 4417,
      "recall": 4418,
      "depart": 4419,
      "learned": 4420,
      "repeated": 4421,
      "Chaplin": 4422,
      "Rog": 4423,
      "mine": 4424,
      "ugly": 4425,
      "##ium": 4426,
      "##LY": 4427,
      "scare": 4428,
      "employ": 4429,
      "warm": 4430,
      "deserved": 4431,
      "subtit": 4432,
      "energy": 4433,
      "IN": 4434,
      "bright": 4435,
      "##aly": 4436,
      "sell": 4437,
      "Carr": 4438,
      "Dam": 4439,
      "Tre": 4440,
      "fright": 4441,
      "hide": 4442,
      "lad": 4443,
      "##kward": 4444,
      "insane": 4445,
      "##apped": 4446,
      "locations": 4447,
      "??": 4448,
      "fre": 4449,
      "lose": 4450,
      "latter": 4451,
      "##oom": 4452,
      "noticed": 4453,
      "##agal": 4454,
      "justice": 4455,
      "insight": 4456,
      "syn": 4457,
      "Du": 4458,
      "Dor": 4459,
      "mut": 4460,
      "Thr": 4461,
      "youth": 4462,
      "frame": 4463,
      "##agger": 4464,
      "unne": 4465,
      "noir": 4466,
      "overl": 4467,
      "achieve": 4468,
      "##zen": 4469,
      "thous": 4470,
      "relie": 4471,
      "##azy": 4472,
      "issue": 4473,
      "pu": 4474,
      "rubb": 4475,
      "##orter": 4476,
      "detective": 4477,
      "Danny": 4478,
      "opposite": 4479,
      "Kelly": 4480,
      "Mus": 4481,
      "##rid": 4482,
      "seg": 4483,
      "Story": 4484,
      "grade": 4485,
      "##duc": 4486,
      "holds": 4487,
      "Barry": 4488,
      "Edd": 4489,
      "##asure": 4490,
      "##icip": 4491,
      "loving": 4492,
      "brutal": 4493,
      "explanation": 4494,
      "tape": 4495,
      "Johnny": 4496,
      "magnific": 4497,
      "thoroughly": 4498,
      "Texas": 4499,
      "Les": 4500,
      "Pet": 4501,
      "##kins": 4502,
      "##ders": 4503,
      "##otes": 4504,
      "anywhere": 4505,
      "##ifer": 4506,
      "heads": 4507,
      "Stewart": 4508,
      "##ennis": 4509,
      "radio": 4510,
      "Rus": 4511,
      "Vict": 4512,
      "bal": 4513,
      "boo": 4514,
      "der": 4515,
      "net": 4516,
      "##ano": 4517,
      "Thank": 4518,
      "blame": 4519,
      "player": 4520,
      "formula": 4521,
      "Wayne": 4522,
      "cele": 4523,
      "clothes": 4524,
      "App": 4525,
      "##well": 4526,
      "##ivity": 4527,
      "awkward": 4528,
      "vision": 4529,
      "fellow": 4530,
      "dangerous": 4531,
      "Lew": 4532,
      "food": 4533,
      "field": 4534,
      "tight": 4535,
      "##AM": 4536,
      "##stick": 4537,
      "twenty": 4538,
      "spoof": 4539,
      "assass": 4540,
      "Mrs": 4541,
      "dreams": 4542,
      "describe": 4543,
      "priv": 4544,
      "contrast": 4545,
      "machine": 4546,
      "60": 4547,
      "Last": 4548,
      "Rom": 4549,
      "##rors": 4550,
      "##ilst": 4551,
      "comedic": 4552,
      "surprising": 4553,
      "sadly": 4554,
      "comparison": 4555,
      "Pre": 4556,
      "les": 4557,
      "ris": 4558,
      "grad": 4559,
      "favourite": 4560,
      "##nam": 4561,
      "##UT": 4562,
      "sea": 4563,
      "##urs": 4564,
      "##unn": 4565,
      "knowledge": 4566,
      "Seagal": 4567,
      "childhood": 4568,
      "memories": 4569,
      "struggle": 4570,
      "afraid": 4571,
      "tragedy": 4572,
      "VHS": 4573,
      "core": 4574,
      "tur": 4575,
      "##oons": 4576,
      "stink": 4577,
      "knock": 4578,
      "minim": 4579,
      "phil": 4580,
      "Dev": 4581,
      "returns": 4582,
      "Louis": 4583,
      "protagonist": 4584,
      "unexpected": 4585,
      "nomin": 4586,
      "##anity": 4587,
      "##aine": 4588,
      "quiet": 4589,
      "Chan": 4590,
      "personally": 4591,
      "proves": 4592,
      "damn": 4593,
      "Betty": 4594,
      "foreign": 4595,
      "Capt": 4596,
      "IT": 4597,
      "Jenn": 4598,
      "Tony": 4599,
      "loss": 4600,
      "##under": 4601,
      "Those": 4602,
      "##uses": 4603,
      "unw": 4604,
      "incre": 4605,
      "monsters": 4606,
      "Batman": 4607,
      "Kid": 4608,
      "##eness": 4609,
      "necessary": 4610,
      "##thern": 4611,
      "contri": 4612,
      "##ugs": 4613,
      "accom": 4614,
      "account": 4615,
      "##inese": 4616,
      "mission": 4617,
      "Horror": 4618,
      "target": 4619,
      "Bull": 4620,
      "paced": 4621,
      "##ET": 4622,
      "##iser": 4623,
      "soap": 4624,
      "truck": 4625,
      "army": 4626,
      "tend": 4627,
      "yeah": 4628,
      "empt": 4629,
      "surely": 4630,
      "nicely": 4631,
      "Everyone": 4632,
      "reminds": 4633,
      "apartment": 4634,
      "establish": 4635,
      "Gh": 4636,
      "Wal": 4637,
      "cow": 4638,
      "ham": 4639,
      "ted": 4640,
      "##entle": 4641,
      "##oos": 4642,
      "White": 4643,
      "murders": 4644,
      "teenagers": 4645,
      "efforts": 4646,
      "redeeming": 4647,
      "##ropriate": 4648,
      "25": 4649,
      "base": 4650,
      "##cl": 4651,
      "tears": 4652,
      "relative": 4653,
      "crack": 4654,
      "##aturally": 4655,
      "Comm": 4656,
      "dimens": 4657,
      "months": 4658,
      "current": 4659,
      "pan": 4660,
      "##aton": 4661,
      "##atory": 4662,
      "##itz": 4663,
      "anybody": 4664,
      "crappy": 4665,
      "responsible": 4666,
      "educ": 4667,
      "junk": 4668,
      "##lock": 4669,
      "##enstein": 4670,
      "proceed": 4671,
      "##soci": 4672,
      "Sean": 4673,
      "Island": 4674,
      "martial": 4675,
      "Mitch": 4676,
      "pacing": 4677,
      "##lor": 4678,
      "unin": 4679,
      "arm": 4680,
      "realism": 4681,
      "##athan": 4682,
      "hund": 4683,
      "central": 4684,
      "independent": 4685,
      "BBC": 4686,
      "birth": 4687,
      "##ency": 4688,
      "##ickey": 4689,
      "belief": 4690,
      "##olds": 4691,
      "experien": 4692,
      "driving": 4693,
      "intelligence": 4694,
      "hundred": 4695,
      "hyp": 4696,
      "mild": 4697,
      "sin": 4698,
      "##arp": 4699,
      "thats": 4700,
      "specif": 4701,
      "France": 4702,
      "skin": 4703,
      "snow": 4704,
      "encounter": 4705,
      "Drac": 4706,
      "interpret": 4707,
      "ver": 4708,
      "##afe": 4709,
      "##uc": 4710,
      "##icious": 4711,
      "seat": 4712,
      "##roc": 4713,
      "enth": 4714,
      "##osaur": 4715,
      "manage": 4716,
      "Chinese": 4717,
      "blond": 4718,
      "##pective": 4719,
      "relate": 4720,
      "arts": 4721,
      "creating": 4722,
      "Blood": 4723,
      "murdered": 4724,
      "survive": 4725,
      "limited": 4726,
      "Victor": 4727,
      "celebr": 4728,
      "Haw": 4729,
      "ner": 4730,
      "pen": 4731,
      "##II": 4732,
      "##__": 4733,
      "##icle": 4734,
      "reflect": 4735,
      "motiv": 4736,
      "treated": 4737,
      "Australian": 4738,
      "nonsense": 4739,
      "Hall": 4740,
      "goof": 4741,
      "hat": 4742,
      "hated": 4743,
      "la": 4744,
      "therefore": 4745,
      "improv": 4746,
      "Hu": 4747,
      "Nic": 4748,
      "hurt": 4749,
      "##cise": 4750,
      "##mark": 4751,
      "##cher": 4752,
      "dig": 4753,
      "##oyal": 4754,
      "##aph": 4755,
      "bland": 4756,
      "##atured": 4757,
      "apparent": 4758,
      "deeply": 4759,
      "70s": 4760,
      "Cle": 4761,
      "cant": 4762,
      "##SE": 4763,
      "##icate": 4764,
      "##iron": 4765,
      "shop": 4766,
      "Which": 4767,
      "transl": 4768,
      "purs": 4769,
      "theatre": 4770,
      "rarely": 4771,
      "##ras": 4772,
      "contrib": 4773,
      "lacking": 4774,
      "generation": 4775,
      "intellect": 4776,
      "summer": 4777,
      "Matth": 4778,
      "irritating": 4779,
      "Dick": 4780,
      "Mil": 4781,
      "NO": 4782,
      "bath": 4783,
      "##earch": 4784,
      "block": 4785,
      "research": 4786,
      "wonderfully": 4787,
      "regret": 4788,
      "planet": 4789,
      "community": 4790,
      "Again": 4791,
      "unusual": 4792,
      "Fi": 4793,
      "Lind": 4794,
      "hits": 4795,
      "##asts": 4796,
      "dism": 4797,
      "cruel": 4798,
      "prove": 4799,
      "winning": 4800,
      "represent": 4801,
      "behavior": 4802,
      "Eddie": 4803,
      "Lewis": 4804,
      "Camp": 4805,
      "DO": 4806,
      "Wat": 4807,
      "hint": 4808,
      "vote": 4809,
      "lovers": 4810,
      "Chuck": 4811,
      "floor": 4812,
      "Joan": 4813,
      "bigger": 4814,
      "dealing": 4815,
      "rubbish": 4816,
      "Cass": 4817,
      "Hay": 4818,
      "Mont": 4819,
      "card": 4820,
      "##enge": 4821,
      "##ademy": 4822,
      "##iance": 4823,
      "##ques": 4824,
      "cru": 4825,
      "keeping": 4826,
      "humanity": 4827,
      "ordinary": 4828,
      "Larry": 4829,
      "Jennifer": 4830,
      "Eric": 4831,
      "Green": 4832,
      "fif": 4833,
      "iron": 4834,
      "sac": 4835,
      "##cies": 4836,
      "fights": 4837,
      "filmmaker": 4838,
      "window": 4839,
      "remarkable": 4840,
      "numbers": 4841,
      "Cent": 4842,
      "Wild": 4843,
      "hidden": 4844,
      "nin": 4845,
      "rape": 4846,
      "##ae": 4847,
      "##iac": 4848,
      "##tes": 4849,
      "asks": 4850,
      "##ruction": 4851,
      "explained": 4852,
      "signific": 4853,
      "Dracula": 4854,
      "Was": 4855,
      "eating": 4856,
      "witty": 4857,
      "##adow": 4858,
      "##ches": 4859,
      "##oyd": 4860,
      "Alice": 4861,
      "Anth": 4862,
      "includes": 4863,
      "!!!!": 4864,
      "hotel": 4865,
      "zombies": 4866,
      "accompl": 4867,
      "Gary": 4868,
      "earn": 4869,
      "fish": 4870,
      "opt": 4871,
      "scared": 4872,
      "unint": 4873,
      "##abeth": 4874,
      "##icked": 4875,
      "##ails": 4876,
      "##ording": 4877,
      "provided": 4878,
      "Air": 4879,
      "Dian": 4880,
      "du": 4881,
      "paper": 4882,
      "##down": 4883,
      "##val": 4884,
      "##pent": 4885,
      "hey": 4886,
      "deals": 4887,
      "humorous": 4888,
      "stereotypes": 4889,
      "philos": 4890,
      "##hol": 4891,
      "##atives": 4892,
      "aband": 4893,
      "print": 4894,
      "attitude": 4895,
      "confront": 4896,
      "below": 4897,
      "environ": 4898,
      ":<": 4899,
      "Ell": 4900,
      "Jac": 4901,
      "WH": 4902,
      "kiss": 4903,
      "##han": 4904,
      "##bian": 4905,
      "##ateg": 4906,
      "feet": 4907,
      "hadn": 4908,
      "incomp": 4909,
      "Before": 4910,
      "cuts": 4911,
      "levels": 4912,
      "officer": 4913,
      "Get": 4914,
      "freed": 4915,
      "##entious": 4916,
      "ens": 4917,
      "##abor": 4918,
      "players": 4919,
      "mini": 4920,
      "evidence": 4921,
      "visit": 4922,
      "animals": 4923,
      "bloody": 4924,
      "Adam": 4925,
      "revealed": 4926,
      "Avoid": 4927,
      "unrealistic": 4928,
      "Bud": 4929,
      "Pred": 4930,
      "Ty": 4931,
      "Ted": 4932,
      "bank": 4933,
      "ran": 4934,
      "##war": 4935,
      "determ": 4936,
      "Pres": 4937,
      "numerous": 4938,
      "Williams": 4939,
      "circ": 4940,
      "circum": 4941,
      "Yeah": 4942,
      "Stephen": 4943,
      "Viet": 4944,
      "ban": 4945,
      "green": 4946,
      "tem": 4947,
      "Three": 4948,
      "guest": 4949,
      "aware": 4950,
      "creatures": 4951,
      "heroes": 4952,
      "advice": 4953,
      "uncon": 4954,
      "engaging": 4955,
      "Ron": 4956,
      "REA": 4957,
      "Tur": 4958,
      "sheer": 4959,
      "partner": 4960,
      "desp": 4961,
      "football": 4962,
      "extraord": 4963,
      "Super": 4964,
      "reaction": 4965,
      "Del": 4966,
      "pet": 4967,
      "##stit": 4968,
      "##ading": 4969,
      "veh": 4970,
      "owner": 4971,
      "trib": 4972,
      "gory": 4973,
      "jer": 4974,
      "ring": 4975,
      "##ante": 4976,
      "smile": 4977,
      "****": 4978,
      "Mi": 4979,
      "Tay": 4980,
      "cal": 4981,
      "ju": 4982,
      "wound": 4983,
      "##aver": 4984,
      "##rad": 4985,
      "dressed": 4986,
      "resol": 4987,
      "buff": 4988,
      "heroine": 4989,
      "Mean": 4990,
      "occasionally": 4991,
      "flying": 4992,
      "challeng": 4993,
      "unnecessary": 4994,
      "Cost": 4995,
      "range": 4996,
      "##ipul": 4997,
      "Alien": 4998,
      ".\"<": 4999,
      "parody": 5000,
      "edited": 5001,
      "included": 5002,
      "villains": 5003,
      "Eliz": 5004,
      "Henry": 5005,
      "Rick": 5006,
      "cars": 5007,
      "##ulci": 5008,
      "##herent": 5009,
      "##pless": 5010,
      "award": 5011,
      "finished": 5012,
      "singer": 5013,
      "Claud": 5014,
      "study": 5015,
      "discovered": 5016,
      "described": 5017,
      "dimensional": 5018,
      "Add": 5019,
      "Matt": 5020,
      "sed": 5021,
      "##kes": 5022,
      "##OL": 5023,
      "##leep": 5024,
      "press": 5025,
      "text": 5026,
      "simpl": 5027,
      "accomp": 5028,
      "steal": 5029,
      "constant": 5030,
      "mixed": 5031,
      "Fulci": 5032,
      "cable": 5033,
      "stret": 5034,
      "##eman": 5035,
      "context": 5036,
      "##umber": 5037,
      "struct": 5038,
      "##porary": 5039,
      "Jerry": 5040,
      "Jes": 5041,
      "bag": 5042,
      "mental": 5043,
      "site": 5044,
      "vac": 5045,
      "brothers": 5046,
      "whilst": 5047,
      "##irm": 5048,
      "screw": 5049,
      "finest": 5050,
      "teenager": 5051,
      "miser": 5052,
      "circumst": 5053,
      "##nia": 5054,
      "troub": 5055,
      "Asian": 5056,
      "!).": 5057,
      "magnificent": 5058,
      "contrived": 5059,
      "Rh": 5060,
      "veter": 5061,
      "##bell": 5062,
      "##reck": 5063,
      "##omen": 5064,
      "##irk": 5065,
      "##aint": 5066,
      "finale": 5067,
      "SPOILERS": 5068,
      "African": 5069,
      "##vest": 5070,
      "##sell": 5071,
      "associ": 5072,
      "grat": 5073,
      "speed": 5074,
      "gotten": 5075,
      "Being": 5076,
      "remembered": 5077,
      "model": 5078,
      "capture": 5079,
      "neighbor": 5080,
      "frequ": 5081,
      "Under": 5082,
      "cash": 5083,
      "table": 5084,
      "##ooper": 5085,
      "somebody": 5086,
      "##ument": 5087,
      "disp": 5088,
      "##atherine": 5089,
      "glass": 5090,
      "regular": 5091,
      "hopes": 5092,
      "genuinely": 5093,
      "Gri": 5094,
      "Mickey": 5095,
      "Wow": 5096,
      "fle": 5097,
      "lat": 5098,
      "##vant": 5099,
      "altern": 5100,
      "intent": 5101,
      "##osexual": 5102,
      "Child": 5103,
      "growing": 5104,
      "Blue": 5105,
      "failure": 5106,
      "concerned": 5107,
      "##writer": 5108,
      "dreadful": 5109,
      "Anthony": 5110,
      "16": 5111,
      "Gree": 5112,
      "Sur": 5113,
      "da": 5114,
      "vir": 5115,
      "##de": 5116,
      "##omed": 5117,
      "##sem": 5118,
      "decision": 5119,
      "grace": 5120,
      "morning": 5121,
      "psychological": 5122,
      "spectacular": 5123,
      "Cat": 5124,
      "Dennis": 5125,
      "EVER": 5126,
      "Kenn": 5127,
      "inj": 5128,
      "forces": 5129,
      "princi": 5130,
      "starting": 5131,
      "involves": 5132,
      "European": 5133,
      "received": 5134,
      "Eastwood": 5135,
      "slapstick": 5136,
      "freedom": 5137,
      "Val": 5138,
      "##ault": 5139,
      "beach": 5140,
      "##alling": 5141,
      "##lder": 5142,
      "##urity": 5143,
      "##ummy": 5144,
      "scenar": 5145,
      "##ella": 5146,
      "##anned": 5147,
      "Spanish": 5148,
      "Actually": 5149,
      "Brian": 5150,
      "philosoph": 5151,
      "Jose": 5152,
      "Sin": 5153,
      "##natural": 5154,
      "##imate": 5155,
      "##ulf": 5156,
      "##ushing": 5157,
      "##ogra": 5158,
      "instance": 5159,
      "talents": 5160,
      "pulled": 5161,
      "judge": 5162,
      "##fortable": 5163,
      "criminal": 5164,
      "Take": 5165,
      "safe": 5166,
      "##cent": 5167,
      "##vis": 5168,
      "##ye": 5169,
      "##TH": 5170,
      "consequ": 5171,
      "manipul": 5172,
      "switch": 5173,
      "sucked": 5174,
      "debut": 5175,
      "harm": 5176,
      "relief": 5177,
      "Taylor": 5178,
      "Time": 5179,
      "fate": 5180,
      "park": 5181,
      "##rays": 5182,
      "##rical": 5183,
      "choose": 5184,
      "sole": 5185,
      "sitcom": 5186,
      "skills": 5187,
      "corrupt": 5188,
      "walked": 5189,
      "results": 5190,
      "connection": 5191,
      "rush": 5192,
      "##och": 5193,
      "##rous": 5194,
      "##ban": 5195,
      "##inn": 5196,
      "##iling": 5197,
      "##imental": 5198,
      "##thur": 5199,
      "enemy": 5200,
      "terribly": 5201,
      "cares": 5202,
      "minds": 5203,
      "##alloween": 5204,
      "Jewish": 5205,
      "pilot": 5206,
      "Elizabeth": 5207,
      "Gi": 5208,
      "Jan": 5209,
      "Roman": 5210,
      "king": 5211,
      "lock": 5212,
      "subpl": 5213,
      "farm": 5214,
      "Def": 5215,
      "Roberts": 5216,
      "categ": 5217,
      "hall": 5218,
      "##ura": 5219,
      "frank": 5220,
      "##ained": 5221,
      "animal": 5222,
      "##althy": 5223,
      "flashbacks": 5224,
      "##uther": 5225,
      "church": 5226,
      "##umps": 5227,
      "unable": 5228,
      "peace": 5229,
      "thrill": 5230,
      "flesh": 5231,
      "talks": 5232,
      "Scar": 5233,
      "England": 5234,
      "technical": 5235,
      "visuals": 5236,
      "Columb": 5237,
      "Holmes": 5238,
      "subtitles": 5239,
      "Old": 5240,
      "Up": 5241,
      "##ym": 5242,
      "broken": 5243,
      "##tha": 5244,
      "organ": 5245,
      "##cient": 5246,
      "overly": 5247,
      "teens": 5248,
      "humans": 5249,
      "kinda": 5250,
      "lesson": 5251,
      "discovers": 5252,
      "driven": 5253,
      "guns": 5254,
      "controvers": 5255,
      "propag": 5256,
      "Barbara": 5257,
      "Rem": 5258,
      "fal": 5259,
      "##yle": 5260,
      "##arl": 5261,
      "##anny": 5262,
      "##uls": 5263,
      "grown": 5264,
      "built": 5265,
      "Evil": 5266,
      "combination": 5267,
      "Watching": 5268,
      "essentially": 5269,
      "dubbed": 5270,
      "empty": 5271,
      "Back": 5272,
      "Ol": 5273,
      "Wr": 5274,
      "sides": 5275,
      "##UN": 5276,
      "deg": 5277,
      "##ights": 5278,
      "blow": 5279,
      "village": 5280,
      "shocked": 5281,
      "Tommy": 5282,
      "existence": 5283,
      "##iversal": 5284,
      "Lynch": 5285,
      "experienced": 5286,
      ");": 5287,
      "Are": 5288,
      "bodies": 5289,
      "##vit": 5290,
      "##RA": 5291,
      "##nda": 5292,
      "inh": 5293,
      "##osen": 5294,
      "viewed": 5295,
      "famil": 5296,
      "warning": 5297,
      "cameo": 5298,
      "Does": 5299,
      "promise": 5300,
      "capable": 5301,
      "sympathetic": 5302,
      "Halloween": 5303,
      "Mal": 5304,
      "Pict": 5305,
      "tack": 5306,
      "bear": 5307,
      "##idge": 5308,
      "Alan": 5309,
      "Argent": 5310,
      "Play": 5311,
      "Plus": 5312,
      "##ungle": 5313,
      "satire": 5314,
      "continues": 5315,
      "asking": 5316,
      "steals": 5317,
      "theaters": 5318,
      "desperate": 5319,
      "logic": 5320,
      "rescue": 5321,
      "environment": 5322,
      "Hun": 5323,
      "Lord": 5324,
      "Port": 5325,
      "Rod": 5326,
      "bound": 5327,
      "vol": 5328,
      "##ilty": 5329,
      "chore": 5330,
      "unfunny": 5331,
      "delivered": 5332,
      "breaks": 5333,
      "bringing": 5334,
      "photograph": 5335,
      "connect": 5336,
      "cyn": 5337,
      "##house": 5338,
      "##bur": 5339,
      "##aker": 5340,
      "##phy": 5341,
      "obsc": 5342,
      "##opper": 5343,
      "Berg": 5344,
      "graphic": 5345,
      "##IGH": 5346,
      "Sat": 5347,
      "lin": 5348,
      "##iable": 5349,
      "##ration": 5350,
      "##bles": 5351,
      "##pir": 5352,
      "##icit": 5353,
      "send": 5354,
      "myth": 5355,
      "Andrew": 5356,
      "opens": 5357,
      "Really": 5358,
      "nightm": 5359,
      "distract": 5360,
      "2001": 5361,
      "twisted": 5362,
      "dollars": 5363,
      "Bor": 5364,
      "Fam": 5365,
      "Much": 5366,
      "counter": 5367,
      "fra": 5368,
      "mountain": 5369,
      "##ogy": 5370,
      "##formed": 5371,
      "obl": 5372,
      "assume": 5373,
      "featuring": 5374,
      "Lane": 5375,
      "Ob": 5376,
      "Rose": 5377,
      "besides": 5378,
      "dated": 5379,
      "##ners": 5380,
      "##mond": 5381,
      "##enz": 5382,
      "##ication": 5383,
      "##oooo": 5384,
      "underrated": 5385,
      "pretentious": 5386,
      "##iverse": 5387,
      "Doctor": 5388,
      "types": 5389,
      "##ausible": 5390,
      "Helen": 5391,
      "tedious": 5392,
      "gonna": 5393,
      "na": 5394,
      "##ients": 5395,
      "sharp": 5396,
      "##usi": 5397,
      "##aken": 5398,
      ".......": 5399,
      "decade": 5400,
      "believes": 5401,
      "classics": 5402,
      "reviewers": 5403,
      "marry": 5404,
      "corny": 5405,
      "amateurish": 5406,
      "weeks": 5407,
      "disgusting": 5408,
      "Vamp": 5409,
      "wra": 5410,
      "toward": 5411,
      "##add": 5412,
      "aged": 5413,
      "spends": 5414,
      "thoughts": 5415,
      "higher": 5416,
      "invent": 5417,
      "creates": 5418,
      "Arm": 5419,
      "purch": 5420,
      "rental": 5421,
      "meeting": 5422,
      "inspir": 5423,
      "executed": 5424,
      "saved": 5425,
      "Wilson": 5426,
      "Kill": 5427,
      "Lor": 5428,
      "gross": 5429,
      "lo": 5430,
      "##BO": 5431,
      "##orious": 5432,
      "##onel": 5433,
      "##itiz": 5434,
      "##aded": 5435,
      "scale": 5436,
      "une": 5437,
      "##ocal": 5438,
      "imagin": 5439,
      "marvel": 5440,
      "Anyone": 5441,
      "Franc": 5442,
      "Girl": 5443,
      "Lau": 5444,
      "sake": 5445,
      "saving": 5446,
      "##ker": 5447,
      "##ito": 5448,
      "hack": 5449,
      "##elve": 5450,
      "##aze": 5451,
      "originally": 5452,
      "##order": 5453,
      "standing": 5454,
      "skill": 5455,
      "Jimmy": 5456,
      "Academy": 5457,
      "lesbian": 5458,
      "Meanwhile": 5459,
      "Bog": 5460,
      "Hope": 5461,
      "Moon": 5462,
      "Vinc": 5463,
      "YOU": 5464,
      "fet": 5465,
      "grew": 5466,
      "##IR": 5467,
      "##GE": 5468,
      "##iled": 5469,
      "conce": 5470,
      "##tended": 5471,
      "horribly": 5472,
      "laughter": 5473,
      "THIS": 5474,
      "##insp": 5475,
      "Arthur": 5476,
      "involve": 5477,
      "Captain": 5478,
      "##ographer": 5479,
      "families": 5480,
      "bre": 5481,
      "##ule": 5482,
      "##lying": 5483,
      "##ements": 5484,
      "##antino": 5485,
      "charism": 5486,
      "prostit": 5487,
      "intention": 5488,
      "##teen": 5489,
      "ideal": 5490,
      "Leon": 5491,
      "hearted": 5492,
      "colour": 5493,
      "gangster": 5494,
      "##clear": 5495,
      "benef": 5496,
      "contemporary": 5497,
      "Tod": 5498,
      "faced": 5499,
      "harsh": 5500,
      "##ipping": 5501,
      "forth": 5502,
      "shallow": 5503,
      "plans": 5504,
      "wrest": 5505,
      "media": 5506,
      "lucky": 5507,
      "##teresting": 5508,
      "circumstances": 5509,
      "Dog": 5510,
      "Festival": 5511,
      "Nick": 5512,
      "Sov": 5513,
      "Ven": 5514,
      "lousy": 5515,
      "##yer": 5516,
      "##ancy": 5517,
      "soph": 5518,
      "quir": 5519,
      "##anged": 5520,
      "cutting": 5521,
      "brilliantly": 5522,
      "breaking": 5523,
      "##ILL": 5524,
      "Cann": 5525,
      "Son": 5526,
      "Sal": 5527,
      "pal": 5528,
      "rough": 5529,
      "vul": 5530,
      "##arian": 5531,
      "##cean": 5532,
      "##theless": 5533,
      "##ulous": 5534,
      "endless": 5535,
      "advert": 5536,
      "incident": 5537,
      "compos": 5538,
      "sequels": 5539,
      "handsome": 5540,
      "suffering": 5541,
      "expression": 5542,
      "emotionally": 5543,
      "source": 5544,
      "nominated": 5545,
      "Hart": 5546,
      "Run": 5547,
      "##entic": 5548,
      "##umm": 5549,
      "cring": 5550,
      "portrays": 5551,
      "Carpent": 5552,
      "Without": 5553,
      "admir": 5554,
      "uncom": 5555,
      "praise": 5556,
      "Jam": 5557,
      "Lam": 5558,
      "Roy": 5559,
      "boot": 5560,
      "emer": 5561,
      "fame": 5562,
      "##initely": 5563,
      "shel": 5564,
      "necess": 5565,
      "performed": 5566,
      "facts": 5567,
      "driver": 5568,
      "sword": 5569,
      "Enter": 5570,
      "embarrassing": 5571,
      "perspective": 5572,
      "Win": 5573,
      "lie": 5574,
      "voices": 5575,
      "##ij": 5576,
      "##isa": 5577,
      "##isp": 5578,
      "##che": 5579,
      "ash": 5580,
      "shut": 5581,
      "##usty": 5582,
      "##ago": 5583,
      "##angers": 5584,
      "Stu": 5585,
      "Edward": 5586,
      "Germany": 5587,
      "cartoons": 5588,
      "streets": 5589,
      "extraordinary": 5590,
      "propaganda": 5591,
      "During": 5592,
      "Jess": 5593,
      "fab": 5594,
      "##enced": 5595,
      "evol": 5596,
      "strongly": 5597,
      "\"),": 5598,
      "treatment": 5599,
      "ultimate": 5600,
      "inept": 5601,
      "Cast": 5602,
      "Gord": 5603,
      "Nich": 5604,
      "Our": 5605,
      "Such": 5606,
      "Wolf": 5607,
      "link": 5608,
      "tor": 5609,
      "tick": 5610,
      "zero": 5611,
      "##rence": 5612,
      "##alley": 5613,
      "##ola": 5614,
      "proud": 5615,
      "##ibal": 5616,
      "worthwhile": 5617,
      "curious": 5618,
      "Karen": 5619,
      "hyster": 5620,
      "revolution": 5621,
      "Irish": 5622,
      "routine": 5623,
      "Vietnam": 5624,
      "Bergman": 5625,
      "Cinem": 5626,
      "Dave": 5627,
      "End": 5628,
      "Kane": 5629,
      "cook": 5630,
      "gas": 5631,
      "mask": 5632,
      "price": 5633,
      "Johnson": 5634,
      "recognize": 5635,
      "prepared": 5636,
      "Sadly": 5637,
      "qualities": 5638,
      "CH": 5639,
      "Cali": 5640,
      "Wars": 5641,
      "dry": 5642,
      "##BI": 5643,
      "##asm": 5644,
      "##ety": 5645,
      "##acre": 5646,
      "##ighter": 5647,
      "Friday": 5648,
      "maintain": 5649,
      "Dean": 5650,
      "United": 5651,
      "walks": 5652,
      "majority": 5653,
      "normally": 5654,
      "Appar": 5655,
      "latest": 5656,
      "\"?": 5657,
      "Hum": 5658,
      "Po": 5659,
      "wel": 5660,
      "##UR": 5661,
      "##outhern": 5662,
      "##igg": 5663,
      "featured": 5664,
      "ages": 5665,
      "guilty": 5666,
      "Anderson": 5667,
      "court": 5668,
      "refres": 5669,
      "##aturday": 5670,
      "variety": 5671,
      "protect": 5672,
      "##LLY": 5673,
      "criticism": 5674,
      "Krist": 5675,
      "accompan": 5676,
      "17": 5677,
      "rules": 5678,
      "##uty": 5679,
      "##ums": 5680,
      "disag": 5681,
      "spin": 5682,
      "compan": 5683,
      "reviewer": 5684,
      "committed": 5685,
      "Donald": 5686,
      "##rifying": 5687,
      "affect": 5688,
      "woods": 5689,
      "enthusi": 5690,
      "Die": 5691,
      "Ll": 5692,
      "Oz": 5693,
      "Sk": 5694,
      "powers": 5695,
      "offe": 5696,
      "inex": 5697,
      "flo": 5698,
      "emph": 5699,
      "term": 5700,
      "##ashed": 5701,
      "proved": 5702,
      "Jackie": 5703,
      "center": 5704,
      "descript": 5705,
      "prior": 5706,
      "clichéd": 5707,
      "##lett": 5708,
      "interviews": 5709,
      "Apparently": 5710,
      "Off": 5711,
      "Saturday": 5712,
      "Top": 5713,
      "##ixt": 5714,
      "##break": 5715,
      "notch": 5716,
      "unfor": 5717,
      "##acc": 5718,
      "contact": 5719,
      "handed": 5720,
      "calling": 5721,
      "excited": 5722,
      "matters": 5723,
      "##ethod": 5724,
      "costs": 5725,
      "authentic": 5726,
      "convince": 5727,
      "stereotypical": 5728,
      "depicted": 5729,
      "nuclear": 5730,
      "traditional": 5731,
      "surface": 5732,
      "intellectual": 5733,
      "Califor": 5734,
      "BE": 5735,
      "Bern": 5736,
      "batt": 5737,
      "fits": 5738,
      "rain": 5739,
      "##onic": 5740,
      "##raction": 5741,
      "Channel": 5742,
      "makeup": 5743,
      "Brothers": 5744,
      "letter": 5745,
      "idiot": 5746,
      "caused": 5747,
      "Tarantino": 5748,
      "conversation": 5749,
      ")<": 5750,
      "Kim": 5751,
      "Lo": 5752,
      "SH": 5753,
      "drop": 5754,
      "jail": 5755,
      "pity": 5756,
      "sal": 5757,
      "chosen": 5758,
      "allows": 5759,
      "abuse": 5760,
      "wear": 5761,
      "##umble": 5762,
      "evening": 5763,
      "Hey": 5764,
      "desire": 5765,
      "factor": 5766,
      "Anna": 5767,
      "concert": 5768,
      "\").": 5769,
      "losing": 5770,
      "gratuit": 5771,
      "refreshing": 5772,
      "Kore": 5773,
      "eth": 5774,
      "gentle": 5775,
      "hur": 5776,
      "rise": 5777,
      "##fire": 5778,
      "##EE": 5779,
      "ancient": 5780,
      "heck": 5781,
      "##arden": 5782,
      "spark": 5783,
      "experiences": 5784,
      "angles": 5785,
      "spoilers": 5786,
      "USA": 5787,
      "Patrick": 5788,
      "Trek": 5789,
      "Gordon": 5790,
      "mock": 5791,
      "##uk": 5792,
      "##RI": 5793,
      "toler": 5794,
      "##itious": 5795,
      "seven": 5796,
      "##the": 5797,
      "##outs": 5798,
      "clue": 5799,
      "Brad": 5800,
      "Rec": 5801,
      "provoking": 5802,
      "profound": 5803,
      "suspenseful": 5804,
      "position": 5805,
      "bothered": 5806,
      "##auses": 5807,
      "Luc": 5808,
      "sympathy": 5809,
      "destroyed": 5810,
      "Walker": 5811,
      "Through": 5812,
      "puzz": 5813,
      "Francis": 5814,
      "Lloyd": 5815,
      "Cas": 5816,
      "Each": 5817,
      "Mir": 5818,
      "Your": 5819,
      "ho": 5820,
      "witch": 5821,
      "##cra": 5822,
      "##ingers": 5823,
      "##arc": 5824,
      "##stream": 5825,
      "whenever": 5826,
      "##ello": 5827,
      "Chic": 5828,
      "handled": 5829,
      "statement": 5830,
      "depressing": 5831,
      "Nichol": 5832,
      "NE": 5833,
      "fest": 5834,
      "hol": 5835,
      "lower": 5836,
      "tiny": 5837,
      "##ba": 5838,
      "movement": 5839,
      "asleep": 5840,
      "##usive": 5841,
      "outrage": 5842,
      "ende": 5843,
      "preach": 5844,
      "believed": 5845,
      "produce": 5846,
      "favorites": 5847,
      "speaks": 5848,
      "theatrical": 5849,
      "Connery": 5850,
      "exploitation": 5851,
      "##worth": 5852,
      "Sund": 5853,
      "bond": 5854,
      "lone": 5855,
      "ske": 5856,
      "##ato": 5857,
      "##oven": 5858,
      "##etime": 5859,
      "semi": 5860,
      "##uno": 5861,
      "unre": 5862,
      "192": 5863,
      "Unlike": 5864,
      "landsc": 5865,
      "Julia": 5866,
      "identity": 5867,
      "Laura": 5868,
      "Roger": 5869,
      "Dun": 5870,
      "Long": 5871,
      "Pal": 5872,
      "wins": 5873,
      "yell": 5874,
      "##cul": 5875,
      "##sen": 5876,
      "reject": 5877,
      "##udes": 5878,
      "##ogether": 5879,
      "pregn": 5880,
      "Brooks": 5881,
      "unfortun": 5882,
      "promising": 5883,
      "homosexual": 5884,
      "arrives": 5885,
      "WWII": 5886,
      "Egy": 5887,
      "Ren": 5888,
      "UK": 5889,
      "VER": 5890,
      "cas": 5891,
      "till": 5892,
      "van": 5893,
      "##ston": 5894,
      "revel": 5895,
      "heist": 5896,
      "##orted": 5897,
      "screaming": 5898,
      "Beaut": 5899,
      "portraying": 5900,
      "repet": 5901,
      "holding": 5902,
      "delightful": 5903,
      "weapons": 5904,
      "Especially": 5905,
      "stopped": 5906,
      "Egypt": 5907,
      "):": 5908,
      "Lady": 5909,
      "Mom": 5910,
      "Sant": 5911,
      "dirty": 5912,
      "fict": 5913,
      "hole": 5914,
      "tap": 5915,
      "##edding": 5916,
      "##aki": 5917,
      "##apping": 5918,
      "camer": 5919,
      "entertained": 5920,
      "popul": 5921,
      "Comp": 5922,
      "largely": 5923,
      "obsessed": 5924,
      "loses": 5925,
      "inevit": 5926,
      "haunting": 5927,
      "Broad": 5928,
      "service": 5929,
      "relatively": 5930,
      "emphas": 5931,
      "Bell": 5932,
      "Den": 5933,
      "MST": 5934,
      "Ra": 5935,
      "ded": 5936,
      "##night": 5937,
      "scr": 5938,
      "Along": 5939,
      "trapped": 5940,
      "Carol": 5941,
      "learns": 5942,
      "India": 5943,
      "renting": 5944,
      "figured": 5945,
      "suffers": 5946,
      "expos": 5947,
      "robb": 5948,
      "religion": 5949,
      "satisfying": 5950,
      "Sometimes": 5951,
      "substance": 5952,
      "Gene": 5953,
      "Sound": 5954,
      "cous": 5955,
      "method": 5956,
      "universe": 5957,
      "...\"": 5958,
      "flow": 5959,
      "States": 5960,
      "related": 5961,
      "commit": 5962,
      "Daniel": 5963,
      "pleasant": 5964,
      "virtually": 5965,
      "melodrama": 5966,
      "multiple": 5967,
      "frankly": 5968,
      "California": 5969,
      "gratuitous": 5970,
      "Sorry": 5971,
      "Wind": 5972,
      "fix": 5973,
      "ice": 5974,
      "pit": 5975,
      "##ss": 5976,
      "##CT": 5977,
      "##rix": 5978,
      "directly": 5979,
      "sett": 5980,
      "##ission": 5981,
      "Bruno": 5982,
      "erotic": 5983,
      "accidentally": 5984,
      "Murphy": 5985,
      "vehicle": 5986,
      "false": 5987,
      "Full": 5988,
      "FBI": 5989,
      "Penn": 5990,
      "Wall": 5991,
      "jeal": 5992,
      "##aust": 5993,
      "##core": 5994,
      "##ani": 5995,
      "##iro": 5996,
      "##obb": 5997,
      "addict": 5998,
      "##umbling": 5999,
      "excit": 6000,
      "critical": 6001,
      "##ENT": 6002,
      "crying": 6003,
      "Russell": 6004,
      "President": 6005,
      "Argento": 6006,
      "quirky": 6007,
      "Carpenter": 6008,
      "14": 6009,
      "Kurt": 6010,
      "cust": 6011,
      "nurse": 6012,
      "tong": 6013,
      "##ipped": 6014,
      "##rating": 6015,
      "##roph": 6016,
      "##orting": 6017,
      "betray": 6018,
      "everywhere": 6019,
      "blown": 6020,
      "appropriate": 6021,
      "distrib": 6022,
      "reput": 6023,
      "Next": 6024,
      "previously": 6025,
      "ruined": 6026,
      "Something": 6027,
      "abandoned": 6028,
      "Catherine": 6029,
      "LA": 6030,
      "Queen": 6031,
      "fare": 6032,
      "vast": 6033,
      "##aa": 6034,
      "##ait": 6035,
      "##hy": 6036,
      "##vy": 6037,
      "##zil": 6038,
      "##eds": 6039,
      "Thing": 6040,
      "##verse": 6041,
      "section": 6042,
      "##ament": 6043,
      "hearing": 6044,
      "##ems": 6045,
      "Inc": 6046,
      "Andy": 6047,
      "##urns": 6048,
      "accents": 6049,
      "coach": 6050,
      "##etheless": 6051,
      "swim": 6052,
      "pulls": 6053,
      "demonstr": 6054,
      "influence": 6055,
      "Canadian": 6056,
      "assassin": 6057,
      "degree": 6058,
      "Coll": 6059,
      "Hit": 6060,
      "bik": 6061,
      "via": 6062,
      "##ulp": 6063,
      "##eland": 6064,
      "greater": 6065,
      "flight": 6066,
      "cheese": 6067,
      "shorts": 6068,
      "supernatural": 6069,
      "Art": 6070,
      "collect": 6071,
      "demand": 6072,
      "sensitive": 6073,
      "raised": 6074,
      "required": 6075,
      "structure": 6076,
      "veteran": 6077,
      "excitement": 6078,
      "Cal": 6079,
      "Goth": 6080,
      "Li": 6081,
      "Us": 6082,
      "ain": 6083,
      "bird": 6084,
      "fund": 6085,
      "festival": 6086,
      "nost": 6087,
      "##REA": 6088,
      "##itter": 6089,
      "stol": 6090,
      "trick": 6091,
      "overact": 6092,
      "##iano": 6093,
      "spite": 6094,
      "sports": 6095,
      "effectively": 6096,
      "Anton": 6097,
      "coinc": 6098,
      "sorts": 6099,
      "Seriously": 6100,
      "department": 6101,
      "minimal": 6102,
      "unconvin": 6103,
      "Kennedy": 6104,
      "Soviet": 6105,
      "unfortunate": 6106,
      "00": 6107,
      "Ara": 6108,
      "Fer": 6109,
      "Los": 6110,
      "task": 6111,
      "##nal": 6112,
      "##roll": 6113,
      "exagger": 6114,
      "placed": 6115,
      "worry": 6116,
      "convey": 6117,
      "timing": 6118,
      "##fection": 6119,
      "extras": 6120,
      "visually": 6121,
      "distinct": 6122,
      "##gged": 6123,
      "passed": 6124,
      "1970": 6125,
      "training": 6126,
      "Australia": 6127,
      "Nazi": 6128,
      "mildly": 6129,
      "Joseph": 6130,
      "liners": 6131,
      "naive": 6132,
      "Four": 6133,
      "Later": 6134,
      "rival": 6135,
      "vague": 6136,
      "##mon": 6137,
      "##orc": 6138,
      "isol": 6139,
      "##lection": 6140,
      "##oting": 6141,
      "##ilton": 6142,
      "chose": 6143,
      "aliens": 6144,
      "uni": 6145,
      "preview": 6146,
      "poign": 6147,
      "##whel": 6148,
      "schem": 6149,
      "painfully": 6150,
      "Davis": 6151,
      "Plan": 6152,
      "technology": 6153,
      "##oppy": 6154,
      "Brazil": 6155,
      "dinner": 6156,
      "Mexican": 6157,
      "disagree": 6158,
      "Bon": 6159,
      "Gre": 6160,
      "Hon": 6161,
      "##dom": 6162,
      "##iques": 6163,
      "Phill": 6164,
      "Otherwise": 6165,
      "status": 6166,
      "funnier": 6167,
      "Golden": 6168,
      "##IGHT": 6169,
      "Come": 6170,
      "Fu": 6171,
      "Hoff": 6172,
      "##lly": 6173,
      "inner": 6174,
      "mainstream": 6175,
      "acqu": 6176,
      "assum": 6177,
      "coff": 6178,
      "captures": 6179,
      "dogs": 6180,
      "sisters": 6181,
      "##cohol": 6182,
      "massive": 6183,
      "Jonathan": 6184,
      "Greek": 6185,
      "Id": 6186,
      "Mass": 6187,
      "Ret": 6188,
      "hipp": 6189,
      "##ching": 6190,
      "stom": 6191,
      "choices": 6192,
      "offensive": 6193,
      "China": 6194,
      "##away": 6195,
      "##viously": 6196,
      "surprises": 6197,
      "##uesome": 6198,
      "courage": 6199,
      "grave": 6200,
      "depiction": 6201,
      "changing": 6202,
      "1980": 6203,
      "appreciated": 6204,
      "Morgan": 6205,
      "claims": 6206,
      "45": 6207,
      "Count": 6208,
      "Water": 6209,
      "tag": 6210,
      "lift": 6211,
      "deeper": 6212,
      "outs": 6213,
      "arrest": 6214,
      "screening": 6215,
      "conscious": 6216,
      "command": 6217,
      "##ynam": 6218,
      "uncle": 6219,
      "device": 6220,
      "continuity": 6221,
      "Cameron": 6222,
      "ladies": 6223,
      "Jesus": 6224,
      "Satan": 6225,
      ",'": 6226,
      "AL": 6227,
      "naturally": 6228,
      "rot": 6229,
      "##ION": 6230,
      "##ils": 6231,
      "scar": 6232,
      "exer": 6233,
      "arms": 6234,
      "covered": 6235,
      "assistant": 6236,
      "goofy": 6237,
      "Vincent": 6238,
      "Ow": 6239,
      "Produ": 6240,
      "TO": 6241,
      "##inal": 6242,
      "##atra": 6243,
      "butt": 6244,
      "charge": 6245,
      "throws": 6246,
      "realizes": 6247,
      "poet": 6248,
      "gritty": 6249,
      "bitter": 6250,
      "imagery": 6251,
      "Army": 6252,
      "Clint": 6253,
      "touches": 6254,
      "winner": 6255,
      "upset": 6256,
      "private": 6257,
      "Buddy": 6258,
      "VERY": 6259,
      "None": 6260,
      "Person": 6261,
      "Rating": 6262,
      "Tri": 6263,
      "##eel": 6264,
      "##idents": 6265,
      "anger": 6266,
      "atro": 6267,
      "##cia": 6268,
      "##ogue": 6269,
      "overd": 6270,
      "throwing": 6271,
      "sounded": 6272,
      "entry": 6273,
      "Allen": 6274,
      "THAT": 6275,
      "amazingly": 6276,
      "Germans": 6277,
      "forgettable": 6278,
      "patient": 6279,
      "Sandra": 6280,
      "summary": 6281,
      "Scarlett": 6282,
      "Family": 6283,
      "Mill": 6284,
      "SO": 6285,
      "domin": 6286,
      "jungle": 6287,
      "##hh": 6288,
      "##buster": 6289,
      "##reh": 6290,
      "##udic": 6291,
      "prete": 6292,
      "maker": 6293,
      "gruesome": 6294,
      "construct": 6295,
      "execution": 6296,
      "closing": 6297,
      "racism": 6298,
      "remotely": 6299,
      "Harris": 6300,
      "Diane": 6301,
      "Predator": 6302,
      "nostal": 6303,
      "Besides": 6304,
      "Sir": 6305,
      "Sav": 6306,
      "##dies": 6307,
      "##ilogy": 6308,
      "liber": 6309,
      "##ulk": 6310,
      "alcohol": 6311,
      "##assion": 6312,
      "serves": 6313,
      "##othy": 6314,
      "---": 6315,
      "headed": 6316,
      "presents": 6317,
      "##uppet": 6318,
      "encou": 6319,
      "initial": 6320,
      "Cry": 6321,
      "Have": 6322,
      "Mid": 6323,
      "Miller": 6324,
      "NY": 6325,
      "hired": 6326,
      "mas": 6327,
      "sink": 6328,
      "##rant": 6329,
      "Things": 6330,
      "##kel": 6331,
      "chief": 6332,
      "##uns": 6333,
      "serve": 6334,
      "remin": 6335,
      "Albert": 6336,
      "decades": 6337,
      "originality": 6338,
      "buying": 6339,
      "minded": 6340,
      "skip": 6341,
      "lights": 6342,
      "Italy": 6343,
      "vampires": 6344,
      "heavily": 6345,
      "regarding": 6346,
      "Basically": 6347,
      "turkey": 6348,
      "reputation": 6349,
      "stolen": 6350,
      "stomach": 6351,
      "Fro": 6352,
      "##oma": 6353,
      "chair": 6354,
      "storyt": 6355,
      "appealing": 6356,
      "campy": 6357,
      "tremend": 6358,
      "Swed": 6359,
      "Burton": 6360,
      "Radio": 6361,
      "category": 6362,
      "atrocious": 6363,
      "Bu": 6364,
      "Custer": 6365,
      "Dad": 6366,
      "HBO": 6367,
      "Poor": 6368,
      "##aire": 6369,
      "##ship": 6370,
      "##nox": 6371,
      "Thanks": 6372,
      "##kend": 6373,
      "uninsp": 6374,
      "##udge": 6375,
      "##ooked": 6376,
      "Andre": 6377,
      "Heart": 6378,
      "Stone": 6379,
      "obnox": 6380,
      "according": 6381,
      "retarded": 6382,
      "murderer": 6383,
      "2005": 6384,
      "narration": 6385,
      "spoiler": 6386,
      "expressions": 6387,
      "Highly": 6388,
      "hanging": 6389,
      "succeeds": 6390,
      "Sarah": 6391,
      "frightening": 6392,
      "scenario": 6393,
      "Jamie": 6394,
      "Da": 6395,
      "Kong": 6396,
      "Nat": 6397,
      "PL": 6398,
      "elder": 6399,
      "##lan": 6400,
      "##laim": 6401,
      "##erie": 6402,
      "##overy": 6403,
      "##ached": 6404,
      "##aws": 6405,
      "teeth": 6406,
      "underground": 6407,
      "rights": 6408,
      "indul": 6409,
      "creation": 6410,
      "polic": 6411,
      "attempting": 6412,
      "costume": 6413,
      "Brand": 6414,
      "focuses": 6415,
      "condition": 6416,
      "network": 6417,
      "##craft": 6418,
      "Fat": 6419,
      "Ka": 6420,
      "Sub": 6421,
      "Tit": 6422,
      "dude": 6423,
      "rub": 6424,
      "##ked": 6425,
      "##UST": 6426,
      "##zan": 6427,
      "##asant": 6428,
      "wash": 6429,
      "##ache": 6430,
      "address": 6431,
      "parall": 6432,
      "experiment": 6433,
      "superf": 6434,
      "titles": 6435,
      "drives": 6436,
      "Inde": 6437,
      "stealing": 6438,
      "stayed": 6439,
      "focused": 6440,
      "paying": 6441,
      "legendary": 6442,
      "Definitely": 6443,
      "Holly": 6444,
      "Land": 6445,
      "bore": 6446,
      "cave": 6447,
      "causes": 6448,
      "##ima": 6449,
      "sev": 6450,
      "seek": 6451,
      "screenwriter": 6452,
      "handle": 6453,
      "Class": 6454,
      "listening": 6455,
      "politics": 6456,
      "accepted": 6457,
      "unlikely": 6458,
      "understood": 6459,
      "necessarily": 6460,
      "Jay": 6461,
      "Vir": 6462,
      "bill": 6463,
      "ludic": 6464,
      "tree": 6465,
      "##wolf": 6466,
      "##IA": 6467,
      "cha": 6468,
      "neat": 6469,
      "warn": 6470,
      "deaths": 6471,
      "Charl": 6472,
      "reporter": 6473,
      "Keaton": 6474,
      "suffer": 6475,
      "?).": 6476,
      "About": 6477,
      "starred": 6478,
      "crafted": 6479,
      "Music": 6480,
      "Walter": 6481,
      "Lost": 6482,
      "boun": 6483,
      "fil": 6484,
      "fac": 6485,
      "native": 6486,
      "##VE": 6487,
      "##),": 6488,
      "##rend": 6489,
      "##omit": 6490,
      "rev": 6491,
      "guard": 6492,
      "subsequ": 6493,
      "Reyn": 6494,
      "amazed": 6495,
      "Movies": 6496,
      "obser": 6497,
      "Acting": 6498,
      "Imag": 6499,
      "Africa": 6500,
      "##glas": 6501,
      "sophistic": 6502,
      "Hitler": 6503,
      "Hoffman": 6504,
      "MOV": 6505,
      "Pri": 6506,
      "San": 6507,
      "Were": 6508,
      "cab": 6509,
      "chuck": 6510,
      "intens": 6511,
      "warned": 6512,
      "Marl": 6513,
      "concent": 6514,
      "figures": 6515,
      "irre": 6516,
      "Russia": 6517,
      "dinosaur": 6518,
      "practically": 6519,
      "Douglas": 6520,
      "controversial": 6521,
      "Obviously": 6522,
      ":)": 6523,
      "Dri": 6524,
      "Hong": 6525,
      "Sally": 6526,
      "Would": 6527,
      "cock": 6528,
      "sne": 6529,
      "##den": 6530,
      "##bour": 6531,
      "##orb": 6532,
      "showc": 6533,
      "served": 6534,
      "Ash": 6535,
      "cheer": 6536,
      "explains": 6537,
      "buddy": 6538,
      "stupidity": 6539,
      "Spoil": 6540,
      "credible": 6541,
      "captiv": 6542,
      "complicated": 6543,
      "reveals": 6544,
      "packed": 6545,
      "blonde": 6546,
      "Alf": 6547,
      "Cons": 6548,
      "PG": 6549,
      "Wonder": 6550,
      "dom": 6551,
      "gar": 6552,
      "##point": 6553,
      "##gue": 6554,
      "##zed": 6555,
      "reward": 6556,
      "##olic": 6557,
      "everyday": 6558,
      "carried": 6559,
      "excess": 6560,
      "McG": 6561,
      "##OOD": 6562,
      "productions": 6563,
      "inspiration": 6564,
      "National": 6565,
      "jack": 6566,
      "loyal": 6567,
      "##incess": 6568,
      "forest": 6569,
      "weight": 6570,
      "prime": 6571,
      "##plays": 6572,
      "versions": 6573,
      "halfway": 6574,
      "##ception": 6575,
      "School": 6576,
      "flawed": 6577,
      "Flor": 6578,
      "1950": 6579,
      "ANY": 6580,
      "rolling": 6581,
      "drinking": 6582,
      "Susan": 6583,
      "pregnant": 6584,
      "obnoxious": 6585,
      "Talk": 6586,
      "cy": 6587,
      "national": 6588,
      "wid": 6589,
      "##za": 6590,
      "tom": 6591,
      "franch": 6592,
      "plastic": 6593,
      "comical": 6594,
      "##actic": 6595,
      "alright": 6596,
      "conven": 6597,
      "##ummer": 6598,
      "backd": 6599,
      "expert": 6600,
      "medical": 6601,
      "Frankenstein": 6602,
      "mistakes": 6603,
      "reference": 6604,
      "integr": 6605,
      "##--------": 6606,
      "GO": 6607,
      "Home": 6608,
      "Pot": 6609,
      "fulf": 6610,
      "raw": 6611,
      "thro": 6612,
      "##aron": 6613,
      "beer": 6614,
      "##adows": 6615,
      "dozen": 6616,
      "alter": 6617,
      "nose": 6618,
      "##ishment": 6619,
      "adop": 6620,
      "particip": 6621,
      "downright": 6622,
      "comedian": 6623,
      "emp": 6624,
      "security": 6625,
      "credibility": 6626,
      "painting": 6627,
      "colors": 6628,
      "attacks": 6629,
      "rule": 6630,
      "occasional": 6631,
      "designed": 6632,
      "Check": 6633,
      "racist": 6634,
      "inhab": 6635,
      "Hunter": 6636,
      "Chicago": 6637,
      "Fre": 6638,
      "Tru": 6639,
      "pile": 6640,
      "sand": 6641,
      "wreck": 6642,
      "##agh": 6643,
      "##nest": 6644,
      "##ingu": 6645,
      "##itar": 6646,
      "##aser": 6647,
      "##chan": 6648,
      "selling": 6649,
      "enjoying": 6650,
      "borrow": 6651,
      "useless": 6652,
      "announ": 6653,
      "magical": 6654,
      "technique": 6655,
      "amongst": 6656,
      "##iffer": 6657,
      "Austen": 6658,
      "introduction": 6659,
      "Grand": 6660,
      "closer": 6661,
      "join": 6662,
      "faithful": 6663,
      "segment": 6664,
      "MST3": 6665,
      "Aw": 6666,
      "BL": 6667,
      "Hal": 6668,
      "Lisa": 6669,
      "candy": 6670,
      "hes": 6671,
      "page": 6672,
      "rank": 6673,
      "sinc": 6674,
      "tense": 6675,
      "wand": 6676,
      "##iat": 6677,
      "##ux": 6678,
      "##uced": 6679,
      "##gie": 6680,
      "##BS": 6681,
      "##arning": 6682,
      "views": 6683,
      "carries": 6684,
      "letting": 6685,
      "examples": 6686,
      "!),": 6687,
      "Warner": 6688,
      "facial": 6689,
      "Special": 6690,
      "haunted": 6691,
      "Jacob": 6692,
      "description": 6693,
      "unconvincing": 6694,
      "ludicrous": 6695,
      "Call": 6696,
      "Cooper": 6697,
      "Ker": 6698,
      "citiz": 6699,
      "dynam": 6700,
      "pitch": 6701,
      "shark": 6702,
      "offered": 6703,
      "##beat": 6704,
      "##beit": 6705,
      "eyed": 6706,
      "passing": 6707,
      "Probably": 6708,
      "Franco": 6709,
      "properly": 6710,
      "Baby": 6711,
      "mentally": 6712,
      "Children": 6713,
      "ALL": 6714,
      "Bry": 6715,
      "Cole": 6716,
      "Net": 6717,
      "Pret": 6718,
      "Say": 6719,
      "tune": 6720,
      "##jud": 6721,
      "##imm": 6722,
      "##amond": 6723,
      "##umin": 6724,
      "perfection": 6725,
      "##ianc": 6726,
      "tear": 6727,
      "contest": 6728,
      "instantly": 6729,
      "Arn": 6730,
      "format": 6731,
      "Amaz": 6732,
      "cultural": 6733,
      "Comedy": 6734,
      "Norman": 6735,
      "metaph": 6736,
      "separate": 6737,
      "thousands": 6738,
      "significant": 6739,
      "consequences": 6740,
      "Broadway": 6741,
      "Ro": 6742,
      "Res": 6743,
      "##bit": 6744,
      "##ga": 6745,
      "##gia": 6746,
      "##IM": 6747,
      "##antage": 6748,
      "##opath": 6749,
      "blat": 6750,
      "killers": 6751,
      "appl": 6752,
      "Blair": 6753,
      "transform": 6754,
      "angle": 6755,
      "stunt": 6756,
      "miles": 6757,
      "answers": 6758,
      "idiotic": 6759,
      "divor": 6760,
      "interpretation": 6761,
      "reminisc": 6762,
      "Khan": 6763,
      "Oper": 6764,
      "Ric": 6765,
      "size": 6766,
      "##ube": 6767,
      "##CK": 6768,
      "##atically": 6769,
      "suits": 6770,
      "scares": 6771,
      "albeit": 6772,
      "cann": 6773,
      "trilogy": 6774,
      "##ogan": 6775,
      "diss": 6776,
      "ade": 6777,
      "Intern": 6778,
      "scream": 6779,
      "indie": 6780,
      "##ucky": 6781,
      "Reg": 6782,
      "##ointed": 6783,
      "countries": 6784,
      "Someone": 6785,
      "Michelle": 6786,
      "Charact": 6787,
      "Norris": 6788,
      "official": 6789,
      "ignore": 6790,
      "Bobby": 6791,
      "tongue": 6792,
      "Reynolds": 6793,
      "Tor": 6794,
      "hung": 6795,
      "##isation": 6796,
      "##owell": 6797,
      "stalk": 6798,
      "exch": 6799,
      "##istent": 6800,
      "lovable": 6801,
      "overwhel": 6802,
      "Stud": 6803,
      "extent": 6804,
      "adding": 6805,
      "exceptional": 6806,
      "techniques": 6807,
      "revolves": 6808,
      "aston": 6809,
      "urban": 6810,
      "Philip": 6811,
      "gripping": 6812,
      "Sunday": 6813,
      "Owen": 6814,
      "Bates": 6815,
      "Det": 6816,
      "LOV": 6817,
      "Ma": 6818,
      "Mach": 6819,
      "Washing": 6820,
      "aka": 6821,
      "bat": 6822,
      "hip": 6823,
      "nut": 6824,
      "wanna": 6825,
      "##wy": 6826,
      "shr": 6827,
      "button": 6828,
      "alt": 6829,
      "Alt": 6830,
      "incor": 6831,
      "Sex": 6832,
      "helping": 6833,
      "lacked": 6834,
      "attempted": 6835,
      "videos": 6836,
      "##gging": 6837,
      "True": 6838,
      "ratings": 6839,
      "stunts": 6840,
      "Grace": 6841,
      "homage": 6842,
      "Mitchell": 6843,
      "##utherland": 6844,
      "storytelling": 6845,
      "\"...": 6846,
      "Gab": 6847,
      "Ken": 6848,
      "Met": 6849,
      "Rach": 6850,
      "finger": 6851,
      "sail": 6852,
      "##rate": 6853,
      "##rees": 6854,
      "Heaven": 6855,
      "string": 6856,
      "opened": 6857,
      "deadly": 6858,
      "novels": 6859,
      "touched": 6860,
      "20th": 6861,
      "purely": 6862,
      "Emily": 6863,
      "scientists": 6864,
      "desperately": 6865,
      "Bullock": 6866,
      "determined": 6867,
      "fictional": 6868,
      "Bott": 6869,
      "Ho": 6870,
      "Marsh": 6871,
      "Nav": 6872,
      "Sutherland": 6873,
      "bon": 6874,
      "##kish": 6875,
      "##don": 6876,
      "greatly": 6877,
      "guar": 6878,
      "blah": 6879,
      "grim": 6880,
      "strict": 6881,
      "struck": 6882,
      "##ibl": 6883,
      "jobs": 6884,
      "guessing": 6885,
      "delivery": 6886,
      "##belief": 6887,
      "Simon": 6888,
      "ruin": 6889,
      "struggles": 6890,
      "searching": 6891,
      "Murray": 6892,
      "ripped": 6893,
      "cousin": 6894,
      "Father": 6895,
      "Hud": 6896,
      "Pony": 6897,
      "ped": 6898,
      "##hem": 6899,
      "##ran": 6900,
      "##ught": 6901,
      "##gon": 6902,
      "theory": 6903,
      "##adays": 6904,
      "outd": 6905,
      "learning": 6906,
      "disgu": 6907,
      "disbelief": 6908,
      "guide": 6909,
      "##quis": 6910,
      "##angle": 6911,
      "##ifies": 6912,
      "scripts": 6913,
      "kinds": 6914,
      "mindless": 6915,
      "possess": 6916,
      "topic": 6917,
      "basis": 6918,
      "equal": 6919,
      "grandfather": 6920,
      "robot": 6921,
      "innocence": 6922,
      "ignor": 6923,
      "carrying": 6924,
      "Knight": 6925,
      "Street": 6926,
      "specific": 6927,
      "Linda": 6928,
      "outrageous": 6929,
      "Washington": 6930,
      "Bollywood": 6931,
      "Hurt": 6932,
      "Ju": 6933,
      "Nol": 6934,
      "Nob": 6935,
      "Right": 6936,
      "bare": 6937,
      "coun": 6938,
      "fond": 6939,
      "mere": 6940,
      "##TV": 6941,
      "##icial": 6942,
      "/>(": 6943,
      "render": 6944,
      "stays": 6945,
      "shadow": 6946,
      "##eline": 6947,
      "wears": 6948,
      "wealthy": 6949,
      "seeking": 6950,
      "Deep": 6951,
      "restaur": 6952,
      "attacked": 6953,
      "boredom": 6954,
      "immense": 6955,
      "balance": 6956,
      "ashamed": 6957,
      "Personally": 6958,
      "Dep": 6959,
      "Give": 6960,
      "Ru": 6961,
      "Witch": 6962,
      "jew": 6963,
      "lyr": 6964,
      "wine": 6965,
      "ing": 6966,
      "exists": 6967,
      "neck": 6968,
      "argu": 6969,
      "consists": 6970,
      "caring": 6971,
      "phr": 6972,
      "paint": 6973,
      "snakes": 6974,
      "Grade": 6975,
      "poster": 6976,
      "suggests": 6977,
      "repeat": 6978,
      "dollar": 6979,
      "Parker": 6980,
      "Angela": 6981,
      "##lynn": 6982,
      "Hugh": 6983,
      "franchise": 6984,
      "reminiscent": 6985,
      "HA": 6986,
      "Iron": 6987,
      "aired": 6988,
      "gal": 6989,
      "hiding": 6990,
      "##taking": 6991,
      "##GM": 6992,
      "##chest": 6993,
      "##unes": 6994,
      "alb": 6995,
      "pros": 6996,
      "##forms": 6997,
      "crude": 6998,
      "##ocr": 6999,
      "stranger": 7000,
      "##arring": 7001,
      "appearing": 7002,
      "skate": 7003,
      "elev": 7004,
      "advantage": 7005,
      "Amanda": 7006,
      "appearances": 7007,
      ".)<": 7008,
      "tribute": 7009,
      "miserably": 7010,
      "cynical": 7011,
      "uninspired": 7012,
      "MOVIE": 7013,
      "Case": 7014,
      "Cont": 7015,
      "firm": 7016,
      "nation": 7017,
      "nude": 7018,
      "##sky": 7019,
      "##noon": 7020,
      "##UL": 7021,
      "##TER": 7022,
      "##CE": 7023,
      "##esis": 7024,
      "shape": 7025,
      "##ouses": 7026,
      "outf": 7027,
      "##oster": 7028,
      "##ounding": 7029,
      "arrog": 7030,
      "dislike": 7031,
      "resist": 7032,
      "phen": 7033,
      "Universal": 7034,
      "confusion": 7035,
      "hopefully": 7036,
      "stops": 7037,
      "##ification": 7038,
      "##balls": 7039,
      "innov": 7040,
      "beloved": 7041,
      "patri": 7042,
      "combined": 7043,
      "westerns": 7044,
      "surrounding": 7045,
      "cringe": 7046,
      "poignant": 7047,
      "intensity": 7048,
      "Pretty": 7049,
      "Award": 7050,
      "Further": 7051,
      "Lin": 7052,
      "Lion": 7053,
      "Mod": 7054,
      "Rome": 7055,
      "cand": 7056,
      "vent": 7057,
      "##orrow": 7058,
      "noted": 7059,
      "cance": 7060,
      "unor": 7061,
      "##igar": 7062,
      "##ellar": 7063,
      "##abe": 7064,
      "Ali": 7065,
      "Alm": 7066,
      "Brid": 7067,
      "stylish": 7068,
      "captain": 7069,
      "occup": 7070,
      "opposed": 7071,
      "destruction": 7072,
      "Monster": 7073,
      "weekend": 7074,
      "##world": 7075,
      "escapes": 7076,
      "General": 7077,
      "mirror": 7078,
      "repeatedly": 7079,
      "risk": 7080,
      "sinister": 7081,
      "Griff": 7082,
      "exercise": 7083,
      "MGM": 7084,
      "Nin": 7085,
      "Rain": 7086,
      "Sol": 7087,
      "Sister": 7088,
      "Turn": 7089,
      "bow": 7090,
      "fed": 7091,
      "##iation": 7092,
      "##hi": 7093,
      "##mother": 7094,
      "##BLE": 7095,
      "brand": 7096,
      "/>*": 7097,
      "sher": 7098,
      "chap": 7099,
      "##estly": 7100,
      "proof": 7101,
      "##plic": 7102,
      "horrific": 7103,
      "Union": 7104,
      "possessed": 7105,
      "Willis": 7106,
      "execut": 7107,
      "Boys": 7108,
      "Angeles": 7109,
      "Techn": 7110,
      "competent": 7111,
      "replaced": 7112,
      "criminals": 7113,
      "hooked": 7114,
      "imaginative": 7115,
      "MST3K": 7116,
      "Flynn": 7117,
      "greed": 7118,
      "laid": 7119,
      "river": 7120,
      "##van": 7121,
      "manager": 7122,
      "beings": 7123,
      "Sheen": 7124,
      "Soon": 7125,
      "bucks": 7126,
      "editor": 7127,
      "unfold": 7128,
      "picks": 7129,
      "Indians": 7130,
      "illeg": 7131,
      "Juliet": 7132,
      "Frankie": 7133,
      "Train": 7134,
      "Prof": 7135,
      "sleeping": 7136,
      "ignored": 7137,
      "international": 7138,
      "interaction": 7139,
      "thousand": 7140,
      "Cassave": 7141,
      "Venice": 7142,
      "unforget": 7143,
      "backdrop": 7144,
      "!.": 7145,
      "24": 7146,
      "Greg": 7147,
      "dare": 7148,
      "##ds": 7149,
      "##ooth": 7150,
      "##ez": 7151,
      "##ean": 7152,
      "##fall": 7153,
      "##face": 7154,
      "##OP": 7155,
      "##inging": 7156,
      "##icles": 7157,
      "##leton": 7158,
      "##ado": 7159,
      "##seud": 7160,
      "notable": 7161,
      "chest": 7162,
      "chilling": 7163,
      "Martha": 7164,
      "miscast": 7165,
      "sleazy": 7166,
      "engine": 7167,
      "existent": 7168,
      "atmospher": 7169,
      "convinced": 7170,
      "convict": 7171,
      "kidnapped": 7172,
      "electric": 7173,
      "uninteresting": 7174,
      "vacation": 7175,
      "##breaking": 7176,
      "lonely": 7177,
      "##wyck": 7178,
      "Ponyo": 7179,
      "21": 7180,
      "99": 7181,
      "Ele": 7182,
      "Fire": 7183,
      "Ha": 7184,
      "Row": 7185,
      "Ros": 7186,
      "Rita": 7187,
      "Set": 7188,
      "Zomb": 7189,
      "lazy": 7190,
      "wedding": 7191,
      "toile": 7192,
      "select": 7193,
      "##race": 7194,
      "##umph": 7195,
      "...)": 7196,
      "##ccent": 7197,
      "Head": 7198,
      "Aside": 7199,
      "deliber": 7200,
      "assign": 7201,
      "closely": 7202,
      "treasure": 7203,
      "struggling": 7204,
      "achieved": 7205,
      "Garfield": 7206,
      "Stanwyck": 7207,
      "##abbit": 7208,
      "Doug": 7209,
      "Matthew": 7210,
      "ironic": 7211,
      "Miy": 7212,
      "Claude": 7213,
      "Vampire": 7214,
      "scratch": 7215,
      "FR": 7216,
      "Hust": 7217,
      "Lang": 7218,
      "River": 7219,
      "Vide": 7220,
      "Wes": 7221,
      "lying": 7222,
      "pseud": 7223,
      "sings": 7224,
      "wond": 7225,
      "##sp": 7226,
      "##oir": 7227,
      "##rum": 7228,
      "##ype": 7229,
      "##omination": 7230,
      "reb": 7231,
      "states": 7232,
      "staff": 7233,
      "shall": 7234,
      "chron": 7235,
      "##iger": 7236,
      "##plend": 7237,
      "blows": 7238,
      "Stra": 7239,
      "finan": 7240,
      "friendly": 7241,
      "triv": 7242,
      "cheek": 7243,
      "buck": 7244,
      "dramas": 7245,
      "portra": 7246,
      "corn": 7247,
      "importantly": 7248,
      "1970s": 7249,
      "acceptable": 7250,
      "sexuality": 7251,
      "briefly": 7252,
      "embarrassed": 7253,
      "graphics": 7254,
      "Devil": 7255,
      "incompet": 7256,
      "frequently": 7257,
      "princip": 7258,
      "Laurel": 7259,
      "custom": 7260,
      "60s": 7261,
      "Has": 7262,
      "pool": 7263,
      "ton": 7264,
      "##ya": 7265,
      "##bury": 7266,
      "##ww": 7267,
      "thirty": 7268,
      "inacc": 7269,
      "Think": 7270,
      "rend": 7271,
      "chasing": 7272,
      "dece": 7273,
      "tender": 7274,
      "Ass": 7275,
      "Anim": 7276,
      "##ibilities": 7277,
      "ourselves": 7278,
      "Blade": 7279,
      "sket": 7280,
      "curios": 7281,
      "magaz": 7282,
      "Britain": 7283,
      "devil": 7284,
      "meaningful": 7285,
      "Police": 7286,
      "Lawrence": 7287,
      "explosions": 7288,
      "jerk": 7289,
      "troubled": 7290,
      "Imagine": 7291,
      "sheriff": 7292,
      "300": 7293,
      "Cross": 7294,
      "Fle": 7295,
      "Ice": 7296,
      "Josh": 7297,
      "Saw": 7298,
      "duty": 7299,
      "eager": 7300,
      "hill": 7301,
      "threw": 7302,
      "storm": 7303,
      "wasting": 7304,
      "shirt": 7305,
      "enorm": 7306,
      "##ptic": 7307,
      "spoken": 7308,
      "territ": 7309,
      "carefully": 7310,
      "fallen": 7311,
      "transfer": 7312,
      "##rified": 7313,
      "shoots": 7314,
      "revealing": 7315,
      "millions": 7316,
      "madness": 7317,
      "physically": 7318,
      "competition": 7319,
      "initially": 7320,
      "weapon": 7321,
      "belongs": 7322,
      "welcome": 7323,
      "Frost": 7324,
      "inaccur": 7325,
      "Cru": 7326,
      "Eri": 7327,
      "Fa": 7328,
      "Hopper": 7329,
      "Lots": 7330,
      "Mah": 7331,
      "Ranger": 7332,
      "eccent": 7333,
      "mature": 7334,
      "moon": 7335,
      "punk": 7336,
      "tab": 7337,
      "##rist": 7338,
      "##uke": 7339,
      "##gom": 7340,
      "##eder": 7341,
      "sends": 7342,
      "unbe": 7343,
      "##ifting": 7344,
      "confess": 7345,
      "discovery": 7346,
      "engaged": 7347,
      "prisoners": 7348,
      "essence": 7349,
      "ambitious": 7350,
      "Ernest": 7351,
      "melodramatic": 7352,
      "argue": 7353,
      "established": 7354,
      "Nicole": 7355,
      "oblig": 7356,
      "Arnold": 7357,
      "BAD": 7358,
      "Civil": 7359,
      "Fiction": 7360,
      "Hill": 7361,
      "Lat": 7362,
      "gut": 7363,
      "gather": 7364,
      "##pet": 7365,
      "##pass": 7366,
      "##anic": 7367,
      "##asingly": 7368,
      "brave": 7369,
      "plant": 7370,
      "##outing": 7371,
      "enh": 7372,
      "meat": 7373,
      "clips": 7374,
      "##ipes": 7375,
      "spell": 7376,
      "Almost": 7377,
      "talked": 7378,
      "Clark": 7379,
      "studios": 7380,
      "corner": 7381,
      "importance": 7382,
      "##etti": 7383,
      "suffered": 7384,
      "surviv": 7385,
      "ultra": 7386,
      "settings": 7387,
      "Final": 7388,
      "adventures": 7389,
      "journal": 7390,
      "identify": 7391,
      "protagonists": 7392,
      "Burt": 7393,
      "Kate": 7394,
      "MA": 7395,
      "Sid": 7396,
      "Veg": 7397,
      "ocean": 7398,
      "tied": 7399,
      "torn": 7400,
      "##ila": 7401,
      "##etically": 7402,
      "##istan": 7403,
      "##ooky": 7404,
      "##onda": 7405,
      "quote": 7406,
      "##acle": 7407,
      "afternoon": 7408,
      "spending": 7409,
      "##pses": 7410,
      "riding": 7411,
      "##arby": 7412,
      "devast": 7413,
      "1950s": 7414,
      "lawyer": 7415,
      "spiritual": 7416,
      "Secret": 7417,
      "Apart": 7418,
      "Nazis": 7419,
      "subplot": 7420,
      "Oliv": 7421,
      "Korean": 7422,
      "Massacre": 7423,
      "##gomery": 7424,
      "Cong": 7425,
      "Crit": 7426,
      "Ral": 7427,
      "kung": 7428,
      "kicks": 7429,
      "piano": 7430,
      "saves": 7431,
      "##va": 7432,
      "thick": 7433,
      "##ona": 7434,
      "##oops": 7435,
      "##ooges": 7436,
      "mans": 7437,
      "##plane": 7438,
      "returning": 7439,
      "Troma": 7440,
      "Quinn": 7441,
      "presentation": 7442,
      "seasons": 7443,
      "Alexander": 7444,
      "challenge": 7445,
      "##iveness": 7446,
      "broadcast": 7447,
      "REALLY": 7448,
      "nightmare": 7449,
      "Wallace": 7450,
      "AT": 7451,
      "Days": 7452,
      "Had": 7453,
      "Kub": 7454,
      "Lone": 7455,
      "Ori": 7456,
      "dump": 7457,
      "hood": 7458,
      "nail": 7459,
      "sen": 7460,
      "##OS": 7461,
      "thread": 7462,
      "##onse": 7463,
      "##arter": 7464,
      "##chant": 7465,
      "stiff": 7466,
      "##ida": 7467,
      "##eston": 7468,
      "##uloid": 7469,
      "unple": 7470,
      "incons": 7471,
      "trial": 7472,
      "##ERS": 7473,
      "mont": 7474,
      "##owski": 7475,
      "##ettes": 7476,
      "solve": 7477,
      "irony": 7478,
      "Event": 7479,
      "capital": 7480,
      "remaining": 7481,
      "drags": 7482,
      "dismiss": 7483,
      "Montgomery": 7484,
      "sacrif": 7485,
      "repetitive": 7486,
      "sophisticated": 7487,
      "##iancé": 7488,
      "unforgettable": 7489,
      "Cur": 7490,
      "Dirty": 7491,
      "cases": 7492,
      "jumps": 7493,
      "upper": 7494,
      "##iar": 7495,
      "##omy": 7496,
      "##iders": 7497,
      "chases": 7498,
      "##aky": 7499,
      "orchest": 7500,
      "##ogical": 7501,
      "smoking": 7502,
      "##entionally": 7503,
      "conspir": 7504,
      "install": 7505,
      "styl": 7506,
      "dealt": 7507,
      "demands": 7508,
      "admire": 7509,
      "Prot": 7510,
      "sentence": 7511,
      "Barney": 7512,
      "ambig": 7513,
      "commercials": 7514,
      "Syd": 7515,
      "performers": 7516,
      "Andrews": 7517,
      "Boris": 7518,
      "marvelous": 7519,
      "curiosity": 7520,
      "LI": 7521,
      "Od": 7522,
      "Randy": 7523,
      "Tot": 7524,
      "Tob": 7525,
      "fiancé": 7526,
      "##erning": 7527,
      "##chy": 7528,
      "##sec": 7529,
      "libr": 7530,
      "sup": 7531,
      "##igan": 7532,
      "##itect": 7533,
      "pray": 7534,
      "clown": 7535,
      "spy": 7536,
      "triumph": 7537,
      "reasonable": 7538,
      "Beyond": 7539,
      "Force": 7540,
      "absorb": 7541,
      "delivering": 7542,
      "motor": 7543,
      "psycho": 7544,
      "detailed": 7545,
      "observ": 7546,
      "1960": 7547,
      "steps": 7548,
      "calm": 7549,
      "##semble": 7550,
      "thrillers": 7551,
      "Picture": 7552,
      "battles": 7553,
      "hitting": 7554,
      "tempt": 7555,
      "west": 7556,
      "##ih": 7557,
      "##iently": 7558,
      "##water": 7559,
      "##ND": 7560,
      "anime": 7561,
      "abys": 7562,
      "##agg": 7563,
      "unm": 7564,
      "precious": 7565,
      "##anson": 7566,
      "caric": 7567,
      "explicit": 7568,
      "artists": 7569,
      "##ypse": 7570,
      "anticip": 7571,
      "survival": 7572,
      "metal": 7573,
      "response": 7574,
      "##coming": 7575,
      "judg": 7576,
      "immig": 7577,
      "increasingly": 7578,
      "Campbell": 7579,
      "cardboard": 7580,
      "##ocalypse": 7581,
      "Opera": 7582,
      "restaurant": 7583,
      "\"-": 7584,
      "Down": 7585,
      "Ep": 7586,
      "Fant": 7587,
      "Low": 7588,
      "Psych": 7589,
      "Squ": 7590,
      "gain": 7591,
      "##ken": 7592,
      "##ELL": 7593,
      "thumb": 7594,
      "##oration": 7595,
      "##isions": 7596,
      "##isten": 7597,
      "tricks": 7598,
      "prevent": 7599,
      "##orses": 7600,
      "spots": 7601,
      "grows": 7602,
      "traum": 7603,
      "##***": 7604,
      "elabor": 7605,
      "president": 7606,
      "corp": 7607,
      "##ika": 7608,
      "affection": 7609,
      "##ANT": 7610,
      "weakness": 7611,
      "raise": 7612,
      "Afgh": 7613,
      "Glenn": 7614,
      "attracted": 7615,
      "legs": 7616,
      "colorful": 7617,
      "concerns": 7618,
      "Hardy": 7619,
      "puppet": 7620,
      "Leonard": 7621,
      "eccentric": 7622,
      "Certain": 7623,
      "Pier": 7624,
      "Ross": 7625,
      "Ten": 7626,
      "tall": 7627,
      "tax": 7628,
      "##kind": 7629,
      "##ef": 7630,
      "##erior": 7631,
      "##omic": 7632,
      "stumb": 7633,
      "##peror": 7634,
      "attraction": 7635,
      "decl": 7636,
      "relax": 7637,
      "audio": 7638,
      "parent": 7639,
      "Maria": 7640,
      "sidek": 7641,
      "Herz": 7642,
      "fourth": 7643,
      "##mma": 7644,
      "connected": 7645,
      "striking": 7646,
      "terrorist": 7647,
      "folk": 7648,
      "fashioned": 7649,
      "golden": 7650,
      "Strange": 7651,
      "rapid": 7652,
      "internet": 7653,
      "dropped": 7654,
      "motivation": 7655,
      "rushed": 7656,
      "territory": 7657,
      "Could": 7658,
      "Cath": 7659,
      "Hind": 7660,
      "Liz": 7661,
      "Mason": 7662,
      "Norm": 7663,
      "Syl": 7664,
      "Tem": 7665,
      "eg": 7666,
      "rug": 7667,
      "##ees": 7668,
      "##yc": 7669,
      "##icop": 7670,
      "##stal": 7671,
      "##idal": 7672,
      "shines": 7673,
      "##thy": 7674,
      "##udos": 7675,
      "##apes": 7676,
      "##mann": 7677,
      "##pert": 7678,
      "awards": 7679,
      "gotta": 7680,
      "appalling": 7681,
      "relevant": 7682,
      "femin": 7683,
      "annoyed": 7684,
      "nonetheless": 7685,
      "##EAD": 7686,
      "bleak": 7687,
      "Craw": 7688,
      "raped": 7689,
      "##********": 7690,
      "causing": 7691,
      "celluloid": 7692,
      "Streep": 7693,
      "Mexico": 7694,
      "hundreds": 7695,
      "fabulous": 7696,
      "Cassavetes": 7697,
      "Jord": 7698,
      "cigar": 7699,
      "ruth": 7700,
      "##die": 7701,
      "##uation": 7702,
      "##jointed": 7703,
      "##inent": 7704,
      "##oria": 7705,
      "tow": 7706,
      "brill": 7707,
      "##ctions": 7708,
      "##elson": 7709,
      "exh": 7710,
      "abilities": 7711,
      "depend": 7712,
      "watches": 7713,
      "......": 7714,
      "overcome": 7715,
      "nowadays": 7716,
      "##astern": 7717,
      "paran": 7718,
      "Unless": 7719,
      "glob": 7720,
      "refuses": 7721,
      "Justin": 7722,
      "honor": 7723,
      "##AND": 7724,
      "destro": 7725,
      "strangely": 7726,
      "mistaken": 7727,
      "obsession": 7728,
      "Abs": 7729,
      "dancer": 7730,
      "travels": 7731,
      "regardless": 7732,
      "jumping": 7733,
      "escaped": 7734,
      "individuals": 7735,
      "ONE": 7736,
      "inevitable": 7737,
      "adequ": 7738,
      "Hudson": 7739,
      "Aaron": 7740,
      "Based": 7741,
      "Cap": 7742,
      "Leland": 7743,
      "Nice": 7744,
      "Read": 7745,
      "SU": 7746,
      "cure": 7747,
      "ren": 7748,
      "wow": 7749,
      "##of": 7750,
      "infect": 7751,
      "##icing": 7752,
      "/>'": 7753,
      "##ieve": 7754,
      "stole": 7755,
      "##cend": 7756,
      "##rial": 7757,
      "alike": 7758,
      "outl": 7759,
      "knife": 7760,
      "guilt": 7761,
      "horrid": 7762,
      "happiness": 7763,
      "pointed": 7764,
      "smoke": 7765,
      "smooth": 7766,
      "##onson": 7767,
      "##airs": 7768,
      "accused": 7769,
      "Beat": 7770,
      "liking": 7771,
      "creators": 7772,
      "##emption": 7773,
      "heroic": 7774,
      "corpor": 7775,
      "darkness": 7776,
      "develops": 7777,
      "selfish": 7778,
      "##useum": 7779,
      "psychiat": 7780,
      "opinions": 7781,
      "pulling": 7782,
      "limit": 7783,
      "Madonna": 7784,
      "newsp": 7785,
      "Tarzan": 7786,
      "symbolism": 7787,
      "Kurtz": 7788,
      "Alfred": 7789,
      "Bottom": 7790,
      "atmospheric": 7791,
      "Ast": 7792,
      "Eve": 7793,
      "Hom": 7794,
      "Hood": 7795,
      "Ire": 7796,
      "Joy": 7797,
      "Mother": 7798,
      "Sen": 7799,
      "cul": 7800,
      "daring": 7801,
      "vivid": 7802,
      "wann": 7803,
      "##ped": 7804,
      "##just": 7805,
      "toss": 7806,
      "##iments": 7807,
      "areas": 7808,
      "##road": 7809,
      "##agan": 7810,
      "##arts": 7811,
      "##istically": 7812,
      "dign": 7813,
      "goodness": 7814,
      "arr": 7815,
      "displays": 7816,
      "blowing": 7817,
      "State": 7818,
      "slick": 7819,
      "sexually": 7820,
      "handful": 7821,
      "providing": 7822,
      "afford": 7823,
      "larger": 7824,
      "sentimental": 7825,
      "combat": 7826,
      "racial": 7827,
      "##heim": 7828,
      "recognition": 7829,
      "traveling": 7830,
      "hype": 7831,
      "merit": 7832,
      "breathtaking": 7833,
      "puppets": 7834,
      "Turkish": 7835,
      "vulner": 7836,
      "Virgin": 7837,
      "Herzog": 7838,
      "Eis": 7839,
      "Field": 7840,
      "Half": 7841,
      "Med": 7842,
      "Sun": 7843,
      "Tam": 7844,
      "WOR": 7845,
      "bust": 7846,
      "gre": 7847,
      "hence": 7848,
      "icon": 7849,
      "ow": 7850,
      "pants": 7851,
      "ranks": 7852,
      "##iper": 7853,
      "##lim": 7854,
      "##lers": 7855,
      "##LD": 7856,
      "##esth": 7857,
      "toy": 7858,
      "wheel": 7859,
      "shy": 7860,
      "heaven": 7861,
      "activ": 7862,
      "nearby": 7863,
      "closed": 7864,
      "clues": 7865,
      "##acab": 7866,
      "spare": 7867,
      "spread": 7868,
      "##prom": 7869,
      "crimes": 7870,
      "whereas": 7871,
      "suburb": 7872,
      "##liver": 7873,
      "dialogs": 7874,
      "lesser": 7875,
      "lessons": 7876,
      "easier": 7877,
      "successfully": 7878,
      "infam": 7879,
      "2006": 7880,
      "McD": 7881,
      "Julian": 7882,
      "1999": 7883,
      "recorded": 7884,
      "tortured": 7885,
      "replace": 7886,
      "loosely": 7887,
      "disappear": 7888,
      "ninja": 7889,
      "stretch": 7890,
      "alternative": 7891,
      "breasts": 7892,
      "wrestling": 7893,
      "Indeed": 7894,
      "toilet": 7895,
      "Ralph": 7896,
      "Kubrick": 7897,
      "unpleasant": 7898,
      "Ireland": 7899,
      "Dut": 7900,
      "Gun": 7901,
      "Hot": 7902,
      "Len": 7903,
      "Rep": 7904,
      "Viv": 7905,
      "gro": 7906,
      "nine": 7907,
      "queen": 7908,
      "splend": 7909,
      "wack": 7910,
      "##cingly": 7911,
      "##hold": 7912,
      "##mitted": 7913,
      "##iner": 7914,
      "broke": 7915,
      "beating": 7916,
      "##imately": 7917,
      "health": 7918,
      "choos": 7919,
      "abrupt": 7920,
      "disjointed": 7921,
      "##awa": 7922,
      "horrend": 7923,
      "underc": 7924,
      "enjoyment": 7925,
      "Ant": 7926,
      "fancy": 7927,
      "!!!!!": 7928,
      "angel": 7929,
      "illust": 7930,
      "Exce": 7931,
      "arrive": 7932,
      "investigation": 7933,
      "Girls": 7934,
      "lifest": 7935,
      "unwatch": 7936,
      "##____": 7937,
      "daily": 7938,
      "hysterical": 7939,
      "isolated": 7940,
      "Video": 7941,
      "Cour": 7942,
      "Duck": 7943,
      "Gus": 7944,
      "Gone": 7945,
      "PR": 7946,
      "Pink": 7947,
      "Que": 7948,
      "RE": 7949,
      "Rene": 7950,
      "Road": 7951,
      "SC": 7952,
      "cried": 7953,
      "guts": 7954,
      "row": 7955,
      "sque": 7956,
      "##vably": 7957,
      "##mate": 7958,
      "##edict": 7959,
      "##lle": 7960,
      "inher": 7961,
      "staged": 7962,
      "shoes": 7963,
      "chain": 7964,
      "##rob": 7965,
      "comfort": 7966,
      "dear": 7967,
      "unim": 7968,
      "contro": 7969,
      "Bean": 7970,
      "glimp": 7971,
      "possibility": 7972,
      "antics": 7973,
      "##ONE": 7974,
      "spoiled": 7975,
      "meaningless": 7976,
      "inspiring": 7977,
      "officers": 7978,
      "idiots": 7979,
      "souls": 7980,
      "receive": 7981,
      "beaten": 7982,
      "Columbo": 7983,
      "##elvet": 7984,
      "prostitute": 7985,
      "offended": 7986,
      "revelation": 7987,
      "Honestly": 7988,
      "phenomen": 7989,
      "wonders": 7990,
      "glimpse": 7991,
      "1st": 7992,
      "35": 7993,
      "Kath": 7994,
      "nod": 7995,
      "pir": 7996,
      "rhy": 7997,
      "##crow": 7998,
      "##allo": 7999,
      "extended": 8000,
      "##arted": 8001,
      "##plete": 8002,
      "spaces": 8003,
      "hardcore": 8004,
      "helicop": 8005,
      "Season": 8006,
      "explod": 8007,
      "careers": 8008,
      "presum": 8009,
      "Atl": 8010,
      "sadistic": 8011,
      "documentaries": 8012,
      "subjects": 8013,
      "returned": 8014,
      "1980s": 8015,
      "##ATCH": 8016,
      "forgive": 8017,
      "adapted": 8018,
      "requires": 8019,
      "Nevertheless": 8020,
      "Seeing": 8021,
      "highlights": 8022,
      "fortun": 8023,
      "neighborhood": 8024,
      "uncomfortable": 8025,
      "Jessica": 8026,
      "elderly": 8027,
      "Bald": 8028,
      "Fonda": 8029,
      "MAN": 8030,
      "Tan": 8031,
      "Tal": 8032,
      "lit": 8033,
      "##nic": 8034,
      "##uz": 8035,
      "##bow": 8036,
      "##?!": 8037,
      "##arable": 8038,
      "inject": 8039,
      "##othing": 8040,
      "##ameless": 8041,
      "whoever": 8042,
      "##isted": 8043,
      "thrilling": 8044,
      "agents": 8045,
      "horrors": 8046,
      "castle": 8047,
      "##ublic": 8048,
      "##arren": 8049,
      "access": 8050,
      "reasonably": 8051,
      "##attered": 8052,
      "##ographic": 8053,
      "Uncle": 8054,
      "##gger": 8055,
      "dragged": 8056,
      "demons": 8057,
      "2000": 8058,
      "2004": 8059,
      "Keith": 8060,
      "devoid": 8061,
      "expensive": 8062,
      "##blance": 8063,
      "constructed": 8064,
      "portrait": 8065,
      "Eventually": 8066,
      "corpse": 8067,
      "AW": 8068,
      "Buster": 8069,
      "WAR": 8070,
      "etern": 8071,
      "gif": 8072,
      "tank": 8073,
      "##rich": 8074,
      "##otion": 8075,
      "beg": 8076,
      "outcome": 8077,
      "ensemble": 8078,
      "##orton": 8079,
      "unh": 8080,
      "Whatever": 8081,
      "imit": 8082,
      "prejud": 8083,
      "##ipment": 8084,
      "recover": 8085,
      "inco": 8086,
      "incest": 8087,
      "##ifying": 8088,
      "##ounters": 8089,
      "Bronson": 8090,
      "classical": 8091,
      "imperson": 8092,
      "Blake": 8093,
      "Att": 8094,
      "Mario": 8095,
      "misf": 8096,
      "busy": 8097,
      "swear": 8098,
      "Films": 8099,
      "burned": 8100,
      "resembles": 8101,
      "thankfully": 8102,
      "cowboy": 8103,
      "fifteen": 8104,
      "juven": 8105,
      "intentions": 8106,
      "Remember": 8107,
      "endearing": 8108,
      "landscape": 8109,
      "##rehens": 8110,
      "tremendous": 8111,
      "unorig": 8112,
      "illegal": 8113,
      "Jere": 8114,
      "Ver": 8115,
      "Vin": 8116,
      "Walt": 8117,
      "egg": 8118,
      "rural": 8119,
      "##nes": 8120,
      "##bal": 8121,
      "##pire": 8122,
      "##writ": 8123,
      "##oves": 8124,
      "stated": 8125,
      "##ami": 8126,
      "##unior": 8127,
      "web": 8128,
      "##andon": 8129,
      "timeless": 8130,
      "maniac": 8131,
      "##igs": 8132,
      "feed": 8133,
      "fears": 8134,
      "precise": 8135,
      "realise": 8136,
      "blast": 8137,
      "characterization": 8138,
      "elsewhere": 8139,
      "definite": 8140,
      "basement": 8141,
      "picking": 8142,
      "Need": 8143,
      "builds": 8144,
      "1995": 8145,
      "signs": 8146,
      "medium": 8147,
      "currently": 8148,
      "behavi": 8149,
      "autom": 8150,
      "Leslie": 8151,
      "Arab": 8152,
      "poetry": 8153,
      "parallel": 8154,
      "Nobody": 8155,
      "lyrics": 8156,
      "Huston": 8157,
      "(!": 8158,
      "Amy": 8159,
      "Carly": 8160,
      "EX": 8161,
      "wicked": 8162,
      "##ware": 8163,
      "##ari": 8164,
      "##ilted": 8165,
      "stood": 8166,
      "sevent": 8167,
      "##rian": 8168,
      "##unction": 8169,
      "comfortable": 8170,
      "##inda": 8171,
      "##force": 8172,
      "##olland": 8173,
      "guitar": 8174,
      "##cco": 8175,
      "Aliens": 8176,
      "killings": 8177,
      "tracks": 8178,
      "farce": 8179,
      "scripted": 8180,
      "glory": 8181,
      "concerning": 8182,
      "politically": 8183,
      "personalities": 8184,
      "scientific": 8185,
      "essential": 8186,
      "aimed": 8187,
      "stinker": 8188,
      "Ghost": 8189,
      "Tyler": 8190,
      "dedicated": 8191,
      "rubber": 8192,
      "Bam": 8193,
      "Dall": 8194,
      "Ko": 8195,
      "Lie": 8196,
      "Living": 8197,
      "Mars": 8198,
      "Oliver": 8199,
      "Pitt": 8200,
      "ax": 8201,
      "hunt": 8202,
      "rive": 8203,
      "ward": 8204,
      "##ipe": 8205,
      "##bling": 8206,
      "##isis": 8207,
      "beats": 8208,
      "planned": 8209,
      "sport": 8210,
      "##eping": 8211,
      "flood": 8212,
      "Stooges": 8213,
      "evident": 8214,
      "restra": 8215,
      "distance": 8216,
      "hearts": 8217,
      "transport": 8218,
      "Conf": 8219,
      "wishes": 8220,
      "sympath": 8221,
      "implausible": 8222,
      "primarily": 8223,
      "architect": 8224,
      "Damme": 8225,
      "baseball": 8226,
      "birthday": 8227,
      "Matthau": 8228,
      "bathroom": 8229,
      "charisma": 8230,
      "benefit": 8231,
      "Recommend": 8232,
      "##REAT": 8233,
      "altogether": 8234,
      "pseudo": 8235,
      "Afghan": 8236,
      "unwatchable": 8237,
      "Auss": 8238,
      "Pac": 8239,
      "tie": 8240,
      "##dog": 8241,
      "##uing": 8242,
      "##gal": 8243,
      "##mit": 8244,
      "brains": 8245,
      "##ilarly": 8246,
      "##ovich": 8247,
      "##ortion": 8248,
      "prol": 8249,
      "offering": 8250,
      "agreed": 8251,
      "##prise": 8252,
      "Short": 8253,
      "performing": 8254,
      "##weight": 8255,
      "trained": 8256,
      "##overty": 8257,
      "##itchen": 8258,
      "eleg": 8259,
      "##engers": 8260,
      "groups": 8261,
      "curse": 8262,
      "affected": 8263,
      "typically": 8264,
      "equipment": 8265,
      "hoped": 8266,
      "teaching": 8267,
      "respond": 8268,
      "Lucy": 8269,
      "ruins": 8270,
      "recording": 8271,
      "porno": 8272,
      "occurs": 8273,
      "Science": 8274,
      "##ACK": 8275,
      "earned": 8276,
      "photographed": 8277,
      "holiday": 8278,
      "jealous": 8279,
      "Swedish": 8280,
      "subsequent": 8281,
      "Altman": 8282,
      "Certainly": 8283,
      "\"!": 8284,
      "\";": 8285,
      "Acc": 8286,
      "Battle": 8287,
      "Lem": 8288,
      "Mun": 8289,
      "Save": 8290,
      "cards": 8291,
      "dish": 8292,
      "eerie": 8293,
      "fitting": 8294,
      "##corn": 8295,
      "##mal": 8296,
      "##ori": 8297,
      "##icion": 8298,
      "##utter": 8299,
      "stead": 8300,
      "##idel": 8301,
      "##ersh": 8302,
      "champ": 8303,
      "french": 8304,
      "allowing": 8305,
      "##olph": 8306,
      "worried": 8307,
      "mechan": 8308,
      "disli": 8309,
      "Int": 8310,
      "##izations": 8311,
      "directorial": 8312,
      "kidding": 8313,
      "Block": 8314,
      "sky": 8315,
      "titled": 8316,
      "'.<": 8317,
      "professor": 8318,
      "loser": 8319,
      "depicts": 8320,
      "Craig": 8321,
      "witnessed": 8322,
      "split": 8323,
      "unintentionally": 8324,
      "guests": 8325,
      "resolution": 8326,
      "Rhett": 8327,
      "glasses": 8328,
      "robbery": 8329,
      "brilliance": 8330,
      "infamous": 8331,
      "juvenile": 8332,
      "Az": 8333,
      "Bark": 8334,
      "CIA": 8335,
      "Eli": 8336,
      "Garb": 8337,
      "Given": 8338,
      "Jen": 8339,
      "bog": 8340,
      "dict": 8341,
      "fro": 8342,
      "golf": 8343,
      "hire": 8344,
      "mic": 8345,
      "patter": 8346,
      "wake": 8347,
      "##uge": 8348,
      "##vity": 8349,
      "##UE": 8350,
      "##itudes": 8351,
      "##lee": 8352,
      "reh": 8353,
      "##ffic": 8354,
      "measure": 8355,
      "unp": 8356,
      "goal": 8357,
      "dise": 8358,
      "spooky": 8359,
      "crush": 8360,
      "removed": 8361,
      "##ifi": 8362,
      "reluct": 8363,
      "cared": 8364,
      "craw": 8365,
      "dialogues": 8366,
      "Real": 8367,
      "distant": 8368,
      "generic": 8369,
      "generous": 8370,
      "Manh": 8371,
      "pleased": 8372,
      "regul": 8373,
      "models": 8374,
      "Plot": 8375,
      "Harold": 8376,
      "politic": 8377,
      "winds": 8378,
      "stereotype": 8379,
      "##ylan": 8380,
      "reactions": 8381,
      "influenced": 8382,
      "ghosts": 8383,
      "conversations": 8384,
      "argument": 8385,
      "hatred": 8386,
      "accomplished": 8387,
      "Sinatra": 8388,
      "involvement": 8389,
      "Cinema": 8390,
      "##ixture": 8391,
      "citizens": 8392,
      "metaphor": 8393,
      "arrogant": 8394,
      "Miyaz": 8395,
      "library": 8396,
      "Excellent": 8397,
      "Band": 8398,
      "Dill": 8399,
      "Dylan": 8400,
      "Follow": 8401,
      "Gib": 8402,
      "Kirk": 8403,
      "MTV": 8404,
      "Rather": 8405,
      "mes": 8406,
      "wont": 8407,
      "ya": 8408,
      "##ucing": 8409,
      "thief": 8410,
      "##atisf": 8411,
      "##asp": 8412,
      "beast": 8413,
      "reel": 8414,
      "sticks": 8415,
      "##rael": 8416,
      "##ava": 8417,
      "thrills": 8418,
      "##onscious": 8419,
      "##unky": 8420,
      "Godfather": 8421,
      "ridiculously": 8422,
      "*****": 8423,
      "Luke": 8424,
      "encounters": 8425,
      "##ramer": 8426,
      "Dragon": 8427,
      "Darkness": 8428,
      "label": 8429,
      "investigate": 8430,
      "discussion": 8431,
      "launch": 8432,
      "inventive": 8433,
      "fetched": 8434,
      "accompanied": 8435,
      "chaos": 8436,
      "astonishing": 8437,
      "sidekick": 8438,
      "Crow": 8439,
      "Killer": 8440,
      "Nelson": 8441,
      "Velvet": 8442,
      "cos": 8443,
      "mixture": 8444,
      "##ecess": 8445,
      "##OST": 8446,
      "##asion": 8447,
      "reun": 8448,
      "notes": 8449,
      "chew": 8450,
      "attend": 8451,
      "doz": 8452,
      "##usions": 8453,
      "##aks": 8454,
      "##cio": 8455,
      "##ours": 8456,
      "##place": 8457,
      "happily": 8458,
      "contract": 8459,
      "Friend": 8460,
      "trio": 8461,
      "consum": 8462,
      "Marion": 8463,
      "Spiel": 8464,
      "##onym": 8465,
      "snake": 8466,
      "predecess": 8467,
      "commented": 8468,
      "daughters": 8469,
      "Amir": 8470,
      "Neil": 8471,
      "checking": 8472,
      "secrets": 8473,
      "prisoner": 8474,
      "errors": 8475,
      "subtlety": 8476,
      "terrorists": 8477,
      "Corman": 8478,
      "dubbing": 8479,
      "hunter": 8480,
      "##opsis": 8481,
      "frustrated": 8482,
      "Carrie": 8483,
      "associated": 8484,
      "virgin": 8485,
      "Gothic": 8486,
      "uniform": 8487,
      "album": 8488,
      "horrendous": 8489,
      "unoriginal": 8490,
      "(..": 8491,
      "Bre": 8492,
      "Cool": 8493,
      "Op": 8494,
      "Roll": 8495,
      "econ": 8496,
      "oil": 8497,
      "tons": 8498,
      "vo": 8499,
      "##can": 8500,
      "##da": 8501,
      "##uated": 8502,
      "##US": 8503,
      "##oni": 8504,
      "ligh": 8505,
      "##olves": 8506,
      "univers": 8507,
      "shower": 8508,
      "offs": 8509,
      "decisions": 8510,
      "compassion": 8511,
      "Seven": 8512,
      "##oked": 8513,
      "##amped": 8514,
      "copies": 8515,
      "cameos": 8516,
      "messages": 8517,
      "advance": 8518,
      "Israel": 8519,
      "mentioning": 8520,
      "popcorn": 8521,
      "##okey": 8522,
      "McK": 8523,
      "motives": 8524,
      "buildings": 8525,
      "musicals": 8526,
      "pleasantly": 8527,
      "writes": 8528,
      "superbly": 8529,
      "##ESS": 8530,
      "amounts": 8531,
      "profession": 8532,
      "labor": 8533,
      "burst": 8534,
      "drunken": 8535,
      "eighties": 8536,
      "frustrating": 8537,
      "specifically": 8538,
      "crucial": 8539,
      "Consider": 8540,
      "skateboard": 8541,
      "magazine": 8542,
      "Baldwin": 8543,
      "Spielberg": 8544,
      "Ball": 8545,
      "BUT": 8546,
      "Gal": 8547,
      "Hunt": 8548,
      "Pen": 8549,
      "Summer": 8550,
      "fighter": 8551,
      "lur": 8552,
      "lust": 8553,
      "pale": 8554,
      "south": 8555,
      "##hill": 8556,
      "##rome": 8557,
      "##mp": 8558,
      "##mates": 8559,
      "##alie": 8560,
      "##ctors": 8561,
      "##kees": 8562,
      "Whether": 8563,
      "poison": 8564,
      "wondered": 8565,
      "conserv": 8566,
      "Unt": 8567,
      "##onto": 8568,
      "sadness": 8569,
      "##oubted": 8570,
      "redemption": 8571,
      "Grant": 8572,
      "flawless": 8573,
      "Quite": 8574,
      "Except": 8575,
      "?),": 8576,
      "conventional": 8577,
      "disturbed": 8578,
      "blend": 8579,
      "1930": 8580,
      "Jews": 8581,
      "Snow": 8582,
      "astron": 8583,
      "insulting": 8584,
      "Apocalypse": 8585,
      "buried": 8586,
      "Party": 8587,
      "achievement": 8588,
      "virus": 8589,
      "obscure": 8590,
      "wrapped": 8591,
      "borrowed": 8592,
      "Vegas": 8593,
      "ruthless": 8594,
      "Div": 8595,
      "Fair": 8596,
      "Hist": 8597,
      "Kat": 8598,
      "Kramer": 8599,
      "Power": 8600,
      "border": 8601,
      "mal": 8602,
      "sarc": 8603,
      "venge": 8604,
      "wet": 8605,
      "##uity": 8606,
      "##woman": 8607,
      "##ata": 8608,
      "##oner": 8609,
      "lip": 8610,
      "doors": 8611,
      "doomed": 8612,
      "##ounds": 8613,
      "##odge": 8614,
      "##aval": 8615,
      "spr": 8616,
      "flu": 8617,
      "##weet": 8618,
      "subl": 8619,
      "Forget": 8620,
      "##ahl": 8621,
      "grab": 8622,
      "Carmen": 8623,
      "##ormal": 8624,
      "##engu": 8625,
      "##ologist": 8626,
      "curs": 8627,
      "2007": 8628,
      "Advent": 8629,
      "Samuel": 8630,
      "mistress": 8631,
      "explaining": 8632,
      "Colin": 8633,
      "Graham": 8634,
      "Terry": 8635,
      "logical": 8636,
      "depressed": 8637,
      "Sheriff": 8638,
      "simplistic": 8639,
      "solely": 8640,
      "conceived": 8641,
      "Todd": 8642,
      "inexplic": 8643,
      "##aghetti": 8644,
      "Bridges": 8645,
      "Absolute": 8646,
      "Eisenstein": 8647,
      "Pacino": 8648,
      "Aug": 8649,
      "Cold": 8650,
      "Dawn": 8651,
      "GREAT": 8652,
      "Hy": 8653,
      "Nov": 8654,
      "Pin": 8655,
      "TR": 8656,
      "Woman": 8657,
      "bold": 8658,
      "dust": 8659,
      "fur": 8660,
      "gall": 8661,
      "horses": 8662,
      "nerv": 8663,
      "southern": 8664,
      "voy": 8665,
      "##town": 8666,
      "##hr": 8667,
      "##bra": 8668,
      "##HING": 8669,
      "##ora": 8670,
      "##oning": 8671,
      "##aman": 8672,
      "##irts": 8673,
      "##emies": 8674,
      "worn": 8675,
      "##umsy": 8676,
      "noise": 8677,
      "overt": 8678,
      "funeral": 8679,
      "blank": 8680,
      "recru": 8681,
      "performer": 8682,
      "differences": 8683,
      "##isms": 8684,
      "##ERE": 8685,
      "shortly": 8686,
      "creativity": 8687,
      "glor": 8688,
      "glam": 8689,
      "fantas": 8690,
      "Conrad": 8691,
      "fairy": 8692,
      "devoted": 8693,
      "spirited": 8694,
      "trend": 8695,
      "improved": 8696,
      "Better": 8697,
      "draws": 8698,
      "bottle": 8699,
      "threatening": 8700,
      "lifetime": 8701,
      "pushed": 8702,
      "proceedings": 8703,
      "LOVE": 8704,
      "Rupert": 8705,
      "Profess": 8706,
      "mesmer": 8707,
      "2nd": 8708,
      "Cron": 8709,
      "Caine": 8710,
      "Jake": 8711,
      "Luck": 8712,
      "Sel": 8713,
      "cats": 8714,
      "croc": 8715,
      "mo": 8716,
      "##iere": 8717,
      "##bie": 8718,
      "##beth": 8719,
      "##UM": 8720,
      "##ications": 8721,
      "Third": 8722,
      "##ione": 8723,
      "stro": 8724,
      "plausible": 8725,
      "conqu": 8726,
      "Church": 8727,
      "Shame": 8728,
      "##pector": 8729,
      "##enson": 8730,
      "##ocative": 8731,
      "grotes": 8732,
      "humili": 8733,
      "producing": 8734,
      "persona": 8735,
      "enters": 8736,
      "Myst": 8737,
      "Myers": 8738,
      "reflection": 8739,
      "hopeless": 8740,
      "drivel": 8741,
      "unfair": 8742,
      "..<": 8743,
      "masterful": 8744,
      "steam": 8745,
      "sleaze": 8746,
      "honesty": 8747,
      "Worth": 8748,
      "planning": 8749,
      "suggested": 8750,
      "strip": 8751,
      "Matrix": 8752,
      "bullet": 8753,
      "orders": 8754,
      "responsibility": 8755,
      "Judge": 8756,
      "defend": 8757,
      "##iseries": 8758,
      "philosophy": 8759,
      "NEVER": 8760,
      "casual": 8761,
      "coffee": 8762,
      "Crystal": 8763,
      "lifestyle": 8764,
      "''": 8765,
      "Bart": 8766,
      "Bible": 8767,
      "CD": 8768,
      "Cre": 8769,
      "Core": 8770,
      "Cob": 8771,
      "Gore": 8772,
      "Hogan": 8773,
      "Kl": 8774,
      "Major": 8775,
      "Ring": 8776,
      "Rour": 8777,
      "Sever": 8778,
      "aid": 8779,
      "bin": 8780,
      "fought": 8781,
      "gor": 8782,
      "kitchen": 8783,
      "##bul": 8784,
      "##orous": 8785,
      "inapp": 8786,
      "ingen": 8787,
      "befriend": 8788,
      "notably": 8789,
      "##rior": 8790,
      "##ols": 8791,
      "##ighty": 8792,
      "pretend": 8793,
      "miniseries": 8794,
      "##asha": 8795,
      "worthless": 8796,
      "explore": 8797,
      "##aneously": 8798,
      "Note": 8799,
      "menacing": 8800,
      "coast": 8801,
      "countless": 8802,
      "murderous": 8803,
      "staying": 8804,
      "reaches": 8805,
      "reached": 8806,
      "##OME": 8807,
      "III": 8808,
      "##blah": 8809,
      "surrounded": 8810,
      "hunting": 8811,
      "locked": 8812,
      "Egyptian": 8813,
      "irrele": 8814,
      "widow": 8815,
      "Rachel": 8816,
      "phrase": 8817,
      "enormous": 8818,
      "Origin": 8819,
      "incoherent": 8820,
      "Jeremy": 8821,
      "DON": 8822,
      "NBC": 8823,
      "Vera": 8824,
      "##lla": 8825,
      "##ripp": 8826,
      "cliff": 8827,
      "##obic": 8828,
      "Ins": 8829,
      "crisis": 8830,
      "Shir": 8831,
      "Shep": 8832,
      "root": 8833,
      "relies": 8834,
      "highest": 8835,
      "harder": 8836,
      "instant": 8837,
      "monolog": 8838,
      "assault": 8839,
      "tales": 8840,
      "Carter": 8841,
      "conclud": 8842,
      "sadd": 8843,
      "##ricia": 8844,
      "admitted": 8845,
      "listed": 8846,
      "morality": 8847,
      "hilariously": 8848,
      "psychopath": 8849,
      "1979": 8850,
      "technically": 8851,
      "narrator": 8852,
      "odds": 8853,
      "introduces": 8854,
      "silver": 8855,
      "Simply": 8856,
      "intrigue": 8857,
      "walls": 8858,
      "represents": 8859,
      "consistent": 8860,
      "##ambling": 8861,
      "gradually": 8862,
      "despair": 8863,
      "EVERY": 8864,
      "exaggerated": 8865,
      "Truly": 8866,
      "exchange": 8867,
      "Casey": 8868,
      "Catholic": 8869,
      "wannabe": 8870,
      "Miyazaki": 8871,
      "Rourke": 8872,
      "')": 8873,
      "Either": 8874,
      "Five": 8875,
      "Liv": 8876,
      "Middle": 8877,
      "Put": 8878,
      "Pulp": 8879,
      "Ult": 8880,
      "bone": 8881,
      "cens": 8882,
      "cup": 8883,
      "gest": 8884,
      "jazz": 8885,
      "mail": 8886,
      "wax": 8887,
      "##aun": 8888,
      "##eur": 8889,
      "##tt": 8890,
      "##IP": 8891,
      "##erved": 8892,
      "##isher": 8893,
      "##stan": 8894,
      "chann": 8895,
      "sung": 8896,
      "scores": 8897,
      "##aste": 8898,
      "trite": 8899,
      "clumsy": 8900,
      "blur": 8901,
      "tends": 8902,
      "##athers": 8903,
      "underlying": 8904,
      "stress": 8905,
      "##arred": 8906,
      "cream": 8907,
      "buddies": 8908,
      "##attan": 8909,
      "heroin": 8910,
      "Carrey": 8911,
      "towns": 8912,
      "Princess": 8913,
      "Herc": 8914,
      "....<": 8915,
      "Granted": 8916,
      "util": 8917,
      "campa": 8918,
      "conditions": 8919,
      "Karl": 8920,
      "continued": 8921,
      "fooled": 8922,
      "fortune": 8923,
      "Silver": 8924,
      "Waters": 8925,
      "charismatic": 8926,
      "superficial": 8927,
      "Freeman": 8928,
      "Griffith": 8929,
      "montage": 8930,
      "##rehensible": 8931,
      "50s": 8932,
      "Ba": 8933,
      "Bush": 8934,
      "Fortunately": 8935,
      "Gil": 8936,
      "Macy": 8937,
      "Rand": 8938,
      "Song": 8939,
      "Try": 8940,
      "Veron": 8941,
      "pa": 8942,
      "ranch": 8943,
      "sust": 8944,
      "sales": 8945,
      "wave": 8946,
      "##now": 8947,
      "##AIN": 8948,
      "##isons": 8949,
      "##arm": 8950,
      "movements": 8951,
      "##emark": 8952,
      "webs": 8953,
      "diamond": 8954,
      "clothing": 8955,
      "##avor": 8956,
      "genres": 8957,
      "believing": 8958,
      "Marc": 8959,
      "detract": 8960,
      "##rene": 8961,
      "Christie": 8962,
      "advise": 8963,
      "convincingly": 8964,
      "Flash": 8965,
      "##........": 8966,
      "Patricia": 8967,
      "trademark": 8968,
      "1940": 8969,
      "require": 8970,
      "satisfied": 8971,
      "splatter": 8972,
      "digital": 8973,
      "Watson": 8974,
      "Elli": 8975,
      "wounded": 8976,
      "Throughout": 8977,
      "Beautiful": 8978,
      "encoura": 8979,
      "Title": 8980,
      "Furthermore": 8981,
      "Psycho": 8982,
      "Jordan": 8983,
      "Aussie": 8984,
      "FX": 8985,
      "Rud": 8986,
      "Sing": 8987,
      "Southern": 8988,
      "Ur": 8989,
      "Valley": 8990,
      "Ward": 8991,
      "Women": 8992,
      "ego": 8993,
      "gift": 8994,
      "hench": 8995,
      "mat": 8996,
      "mudd": 8997,
      "##tte": 8998,
      "##enberg": 8999,
      "##otte": 9000,
      "##ieu": 9001,
      "stellar": 9002,
      "sho": 9003,
      "##keys": 9004,
      "suited": 9005,
      "scra": 9006,
      "##eller": 9007,
      "##arson": 9008,
      "aging": 9009,
      "agrees": 9010,
      "poetic": 9011,
      "attached": 9012,
      "defense": 9013,
      "passes": 9014,
      "collabor": 9015,
      "unfolds": 9016,
      "Isab": 9017,
      "Meg": 9018,
      "Conc": 9019,
      "##EAR": 9020,
      "lands": 9021,
      "potentially": 9022,
      "marks": 9023,
      "survived": 9024,
      "Oscars": 9025,
      "damage": 9026,
      "projects": 9027,
      "judging": 9028,
      "Years": 9029,
      "Melville": 9030,
      "describes": 9031,
      "occurred": 9032,
      "beneath": 9033,
      "Magn": 9034,
      "synopsis": 9035,
      "unintentional": 9036,
      "Costello": 9037,
      "subplots": 9038,
      "washed": 9039,
      "hesit": 9040,
      "trivial": 9041,
      "conspiracy": 9042,
      "##writers": 9043,
      "##oubtedly": 9044,
      "Cart": 9045,
      "Copp": 9046,
      "Dia": 9047,
      "FOR": 9048,
      "Gos": 9049,
      "Hung": 9050,
      "Soul": 9051,
      "Tour": 9052,
      "WAS": 9053,
      "ack": 9054,
      "gimm": 9055,
      "pays": 9056,
      "rat": 9057,
      "sam": 9058,
      "tact": 9059,
      "tail": 9060,
      "vib": 9061,
      "##yes": 9062,
      "##?)": 9063,
      "dire": 9064,
      "upl": 9065,
      "perpet": 9066,
      "Chase": 9067,
      "parties": 9068,
      "workers": 9069,
      "##anging": 9070,
      "trap": 9071,
      "thoughtful": 9072,
      "tripe": 9073,
      "helpless": 9074,
      "carn": 9075,
      "childish": 9076,
      "absent": 9077,
      "refuge": 9078,
      "Margar": 9079,
      "distingu": 9080,
      "Scream": 9081,
      "Edgar": 9082,
      "2003": 9083,
      "cliche": 9084,
      "##oulies": 9085,
      "##volta": 9086,
      "Morris": 9087,
      "historically": 9088,
      "Macbeth": 9089,
      "Stevens": 9090,
      "Carlos": 9091,
      "Sarandon": 9092,
      "Canada": 9093,
      "explosion": 9094,
      "loads": 9095,
      "Dorothy": 9096,
      "distracting": 9097,
      "purchase": 9098,
      "Antonio": 9099,
      "Natalie": 9100,
      "International": 9101,
      "installment": 9102,
      "Crawford": 9103,
      "Buff": 9104,
      "Fel": 9105,
      "ears": 9106,
      "sab": 9107,
      "##lo": 9108,
      "##jo": 9109,
      "##itute": 9110,
      "##icient": 9111,
      "##ada": 9112,
      "##robe": 9113,
      "enemies": 9114,
      "intim": 9115,
      "##plo": 9116,
      "Stay": 9117,
      "##ocaust": 9118,
      "drown": 9119,
      "resort": 9120,
      "screams": 9121,
      "apolog": 9122,
      "laughably": 9123,
      "cheated": 9124,
      "acclaim": 9125,
      "monkey": 9126,
      "Leigh": 9127,
      "forms": 9128,
      "stronger": 9129,
      "promises": 9130,
      "countryside": 9131,
      "Evan": 9132,
      "##resp": 9133,
      "contained": 9134,
      "contrary": 9135,
      "climb": 9136,
      "recognized": 9137,
      "Year": 9138,
      "unbelievably": 9139,
      "suspects": 9140,
      "passionate": 9141,
      "Hammer": 9142,
      "Kids": 9143,
      "philosophical": 9144,
      "Salman": 9145,
      "throat": 9146,
      "inhabit": 9147,
      "blatant": 9148,
      "Gabr": 9149,
      "strictly": 9150,
      "immensely": 9151,
      "newspaper": 9152,
      "Recommended": 9153,
      "irrelevant": 9154,
      "23": 9155,
      "90s": 9156,
      "Care": 9157,
      "Doll": 9158,
      "Ian": 9159,
      "Mind": 9160,
      "Morm": 9161,
      "SE": 9162,
      "ath": 9163,
      "afor": 9164,
      "aesth": 9165,
      "saf": 9166,
      "vicious": 9167,
      "##hile": 9168,
      "##vo": 9169,
      "##bid": 9170,
      "##aled": 9171,
      "rebell": 9172,
      "height": 9173,
      "##essa": 9174,
      "justify": 9175,
      "user": 9176,
      "aggress": 9177,
      "worker": 9178,
      "cheating": 9179,
      "Ree": 9180,
      "dramat": 9181,
      "misses": 9182,
      "Clay": 9183,
      "defined": 9184,
      "painted": 9185,
      "misunder": 9186,
      "centered": 9187,
      "Monkees": 9188,
      "slightest": 9189,
      "senses": 9190,
      "catches": 9191,
      "rolled": 9192,
      "Terror": 9193,
      "remained": 9194,
      "##affy": 9195,
      "kicked": 9196,
      "brutally": 9197,
      "succeeded": 9198,
      "##!!!!!!!!": 9199,
      "Farley": 9200,
      "segments": 9201,
      "Central": 9202,
      "REAL": 9203,
      "miserable": 9204,
      "advertising": 9205,
      "ticket": 9206,
      "cameras": 9207,
      "population": 9208,
      "emphasis": 9209,
      "pitiful": 9210,
      "Spoilers": 9211,
      "sincere": 9212,
      "Erika": 9213,
      "unbearable": 9214,
      "behaviour": 9215,
      "Manhattan": 9216,
      "channels": 9217,
      "acknow": 9218,
      "AM": 9219,
      "Aud": 9220,
      "Bow": 9221,
      "Gang": 9222,
      "Hack": 9223,
      "Irene": 9224,
      "Jol": 9225,
      "Malk": 9226,
      "wing": 9227,
      "##walk": 9228,
      "##eric": 9229,
      "##anie": 9230,
      "##itual": 9231,
      "stark": 9232,
      "stabb": 9233,
      "notion": 9234,
      "##rier": 9235,
      "##unks": 9236,
      "##antom": 9237,
      "##ortal": 9238,
      "seeks": 9239,
      "prec": 9240,
      "prev": 9241,
      "##eps": 9242,
      "afterwards": 9243,
      "sloppy": 9244,
      "resour": 9245,
      "olds": 9246,
      "terrifying": 9247,
      "smell": 9248,
      "##ugos": 9249,
      "addiction": 9250,
      "imagined": 9251,
      "considerable": 9252,
      "mode": 9253,
      "Newman": 9254,
      "Gerald": 9255,
      "Prince": 9256,
      "psychotic": 9257,
      "rooms": 9258,
      "illness": 9259,
      "patients": 9260,
      "silence": 9261,
      "Enjoy": 9262,
      "legit": 9263,
      "satisfact": 9264,
      "burning": 9265,
      "Robinson": 9266,
      "marketing": 9267,
      "##ulsive": 9268,
      "Entertain": 9269,
      "revolutionary": 9270,
      "scheme": 9271,
      "cannibal": 9272,
      "Navy": 9273,
      "Zombie": 9274,
      "elaborate": 9275,
      "dozens": 9276,
      "Absolutely": 9277,
      "##blahblah": 9278,
      "Bay": 9279,
      "Cow": 9280,
      "Cus": 9281,
      "Gere": 9282,
      "HOR": 9283,
      "Hanks": 9284,
      "Kathy": 9285,
      "Lest": 9286,
      "Mos": 9287,
      "Naturally": 9288,
      "fired": 9289,
      "je": 9290,
      "taught": 9291,
      "wolf": 9292,
      "##cr": 9293,
      "##rd": 9294,
      "##iceless": 9295,
      "##lead": 9296,
      "##ctop": 9297,
      "anal": 9298,
      "##terday": 9299,
      "##uri": 9300,
      "exter": 9301,
      "exotic": 9302,
      "cancer": 9303,
      "upd": 9304,
      "werewolf": 9305,
      "armed": 9306,
      "adoles": 9307,
      "recyc": 9308,
      "slaughter": 9309,
      "smugg": 9310,
      "##ords": 9311,
      "appr": 9312,
      "insert": 9313,
      "##entioned": 9314,
      "sounding": 9315,
      "Dee": 9316,
      "absence": 9317,
      "couples": 9318,
      "discon": 9319,
      "boom": 9320,
      "Spain": 9321,
      "smaller": 9322,
      "##psons": 9323,
      "Geor": 9324,
      "similarities": 9325,
      "gangsters": 9326,
      "climactic": 9327,
      "Terrible": 9328,
      "Duke": 9329,
      "overlooked": 9330,
      "proceeds": 9331,
      "challenged": 9332,
[...]
